/**
  ******************************************************************************
  * @file    network_data_params.c
  * @author  AST Embedded Analytics Research Platform
  * @date    Thu Mar 23 21:42:02 2023
  * @brief   AI Tool Automatic Code Generator for Embedded NN computing
  ******************************************************************************
  * Copyright (c) 2023 STMicroelectronics.
  * All rights reserved.
  *
  * This software is licensed under terms that can be found in the LICENSE file
  * in the root directory of this software component.
  * If no LICENSE file comes with this software, it is provided AS-IS.
  ******************************************************************************
  */

#include "network_data_params.h"


/**  Activations Section  ****************************************************/
ai_handle g_network_activations_table[1 + 2] = {
  AI_HANDLE_PTR(AI_MAGIC_MARKER),
  AI_HANDLE_PTR(NULL),
  AI_HANDLE_PTR(AI_MAGIC_MARKER),
};




/**  Weights Section  ********************************************************/
AI_ALIGNED(32)
const ai_u64 s_network_weights_array_u64[8186] = {
  0x0U, 0xbb448c033d50136dU, 0x3daee172U, 0xbd005e53bcba51d0U,
  0x3b842fefbc8f1837U, 0xbd4d94a03c8b38fcU, 0x3c49b5bf3c35f607U, 0xbbdfc4bb00000000U,
  0x3c4918a53d94dda7U, 0xbbd383d5b40d307bU, 0x3d465348365beb36U, 0xbc00112800000000U,
  0xbbb0179dU, 0xbc009cf300000000U, 0x3cbe971c3ddfbc4bU, 0x3d2d921e3cedc6d0U,
  0x3f8000003f800000U, 0x3f7b5bbe3f822ba9U, 0x3f8000003f82b794U, 0x3f7b16783f7a2eacU,
  0x3f7f26c43f7b8c41U, 0x3f7465803f7efbf5U, 0x3f8074e83f80ffc1U, 0x3f7c250c3f800000U,
  0x3f804eb53f7411afU, 0x3f7b709a3f7fffffU, 0x3f8337773f7fc70bU, 0x3f7dfa883f800000U,
  0x3f8000003f7849dfU, 0x3f7e700b3f800000U, 0x3f78fc3f3f7a51c0U, 0x3f8135e03f8219dbU,
  0x0U, 0x3c2fb2063d1f3389U, 0x3d6293c5U, 0xbcbb7e77bcaf0707U,
  0x3cc6334cbc998a73U, 0xbd2c6b913d1e2244U, 0x3ceea9e23bd849e3U, 0xbb3bd36a00000000U,
  0x3cf01f3e3d4c14c8U, 0x3c379a97ba922d9bU, 0x3d3af94b3c4017fbU, 0xbc21766200000000U,
  0xbb84a95bU, 0xbc2f5bc800000000U, 0x3d7064973d19715cU, 0x3d3609dc3d2f0af5U,
  0x0U, 0xbb42ed963d3c947fU, 0x3dae0c59U, 0xbd0d34eebcbc9cbfU,
  0x3b949f8ebc8ea3e5U, 0xbd4c529f3c82197eU, 0x3c7f500e3c3ec234U, 0xbbd48e4d00000000U,
  0x3c4b19603d5b11a6U, 0xbbadab18b42596ffU, 0x3d411ec0b71e677eU, 0xbc00022c00000000U,
  0xbc23005aU, 0xbbe0a66e00000000U, 0x3d0465353dcc5c5cU, 0x3d33fde33d0fade1U,
  0xbcd11b90bd21e558U, 0x3e72789e3df3c7bcU, 0x3e8a33153d594abeU, 0x3ec900b13b199dfcU,
  0xbd716f22beae1995U, 0x3e876089bea768c4U, 0xbd33d1453e1a5c08U, 0xbe0f7adb3e2fe54aU,
  0xbe6588913cd0c8fbU, 0xbda4a4c7bed110c5U, 0x3da931a63d8a3e4dU, 0xbe92c9093e2d1266U,
  0x3eca708bbd5adb26U, 0x3e6e850f3c5601a0U, 0xbe4e1c6b3d0e2366U, 0xbe492b213ec26878U,
  0x3ec7d50fbe23c918U, 0x3ed37b93be8c8efeU, 0xbcaaa200bdbbed6aU, 0x3d12dd343d2816f8U,
  0xbe3fa4813dd86830U, 0xbe210495bdd23814U, 0xbe5e86783e9a7625U, 0xbe9b4a30be191d4aU,
  0xbe9aacdabc0af064U, 0xbe084e36bebc5474U, 0x3df990a2be11db5eU, 0xbe3efde6bc633b40U,
  0x3e845f973b95ab3bU, 0x3e318511bdf496c0U, 0xbdd2ddcb3e8c92c8U, 0x3e995aa1be1b7e9fU,
  0xbe719d8b3d5c1b58U, 0xbb8fb9e63ee5d4afU, 0xbe831f103ede7497U, 0xbd925f88bdcc2668U,
  0x3df8dfa2be906f69U, 0xbe28a1703edc99fdU, 0x3e1698c4bdb26e55U, 0x3ed13548bebb63caU,
  0x3ea896313e926a38U, 0xbec0b2f8be56dd16U, 0x3ea53efebd3601b9U, 0xbdb17f4fbd7f13b0U,
  0x3d67ec683d5f1dbfU, 0xbec0203dbd93a2b4U, 0x3ea14e713dfb3f82U, 0x3e83cafc3deb56f8U,
  0x3d6c63643d56d3d3U, 0xbdcc34e83d53078bU, 0xbc0403703da5d9f6U, 0x3dcf2fba3e272d23U,
  0x3d17a6f43d9263ceU, 0xbe3724213db445e2U, 0x3e481be5be1aa45cU, 0x3e3ca1dabe377eabU,
  0x3db6540ebd4f13f6U, 0x3e465fd13d365974U, 0xbdf700d43d87a3e2U, 0x3e2de101bd1f7f41U,
  0x3e6766fa3e09dbcaU, 0xbd0c5e7f3e06b87bU, 0x3cfbc34bbd6f2d9cU, 0xba3988043d5cea22U,
  0xbe3f2de53ddd10fcU, 0xbcaa4022bde20e46U, 0x3e44b8d23dfff2b2U, 0xbe301dc43cf02e5dU,
  0x3d246fe53db49fd1U, 0x3c954767bc2f03abU, 0xbe0e62ccbe07c1f0U, 0xbdcbbac13df01cc5U,
  0xbe0898c8bcee8397U, 0x3db70a593ab9bcb6U, 0xbdb928b0bd80b673U, 0x3d80fc0e3d0c26acU,
  0xbd694fd8be0b0b9eU, 0x3d745da4bbf41640U, 0xbd0290d93de52670U, 0x3d4af4e7bc6499f9U,
  0xbd15b873bc9661ecU, 0xbd72d97bbd21d6b8U, 0x3d1f17ffbdefbcdbU, 0x3e2dc57fbe3f5e61U,
  0x3cfcf4b6bde8888dU, 0x3e25d5a5bc119274U, 0xbe19e078bdac1b2aU, 0xbd834da4bcd941e0U,
  0x3e0e2f6cbd0ccc7cU, 0xbdc44a9dbd9a0bacU, 0xbe3046ef3e0c5fbaU, 0x3cbaad80bdcc4b8eU,
  0xbe44f0b13e0f7e73U, 0x3d62dd7cbbd44480U, 0xbdabca76be4c6c90U, 0xbdeac2c53db92ef6U,
  0x3bd565f73e325756U, 0x3e4c7a57be294ac2U, 0xbc7d39603e06ba07U, 0x3dcff91ebda0ee6cU,
  0xbdeb2b32bd166208U, 0xbdde3dc8bd87f7c2U, 0xbd43ec70be3546d7U, 0x3e04fb0a3e4e6c6dU,
  0x3e147289bc7ffa90U, 0xbe03c644be09d687U, 0xbda2b050be2a51d0U, 0x3dc8f245bd385527U,
  0x3e2f05f7be30d63cU, 0xbe3dfc0fbdd9486dU, 0xbd9edd703d88e957U, 0x3b878c463d878360U,
  0x3e3ca0e73de3ba58U, 0xbd9c2635bdeeb319U, 0x3cb46981bd4bdadcU, 0x3da3726cbdb06a82U,
  0xbe5e33a9bd3c51efU, 0x3d55c5f63e2f9310U, 0xbe1be9e23b943289U, 0x3e4fdf9b3d8cc7dfU,
  0xbd78d814bd303207U, 0xbd24c4463cb5533dU, 0x3d46ce213d5aa501U, 0xbb1194403d2a0884U,
  0xbd4d3058be19b69eU, 0xbdfe5dd73c9a5918U, 0xbe407c3fbd946bd6U, 0xbd99f12bbda1eab6U,
  0xbd84a6c53d897898U, 0x3de49b77bd1de33dU, 0xbddd9d423d76de1dU, 0x3dd098ae3d20f061U,
  0xbe6493973da39e53U, 0xbdd0342e3dfaf675U, 0xbdad7195be4f4c63U, 0x3e15c4a3be2bad99U,
  0xbdb039cd3dedbc66U, 0x3da013ddbe0ef866U, 0x3e206c53bddabedeU, 0xbe198244bd6f5861U,
  0x3e339121bc103160U, 0xbd93e9d6be1c6cbeU, 0xbdf3730cbda0940eU, 0x3d6ddda2bccbbdf4U,
  0x3e6c4c503c90b204U, 0xbd7cf1743e4e4390U, 0xbe51ffec3dd8224eU, 0xbddb9acfbdb24d66U,
  0x3cb06c88be115ef2U, 0xbde310c5bd380c8cU, 0x3da6d00ebe4ff0eeU, 0x3e519c8abe2a09d0U,
  0xbb7febbdbc3a7f07U, 0xbcdb31703d42e86cU, 0x3dac0d20bc589c00U, 0x3e41df683c68b750U,
  0xbd9f4312be1f2e5aU, 0xbd3f382e3d801083U, 0x3e0c1c073e1dbcbcU, 0xbde5e2ffbe49dee9U,
  0xbe55362ebe3ed424U, 0xbe1801083e48fcd4U, 0x3a945d1bbcf52b40U, 0x3e0a8be93ddfbcedU,
  0xbe155320bc8b1dc5U, 0x3d274baf3dec8256U, 0x3db6b7e73e5a0862U, 0xbc008a093d06b4fbU,
  0xbe445a183e4a8d8fU, 0xbe2757d03e2749c3U, 0x3e03609d3b515e5bU, 0x3dcc21823e54bef1U,
  0xbe3cd846bde0fc40U, 0xbe53123cbd899b76U, 0x3e56f6583e04d161U, 0x3d44d3563e65da05U,
  0x3e101253be260099U, 0xbd1c2fbd3cd11e87U, 0x3da18ae33e55b27aU, 0x3e2aa30ebd98079bU,
  0xbcf91c363c426e4dU, 0xbc80fa913d090e48U, 0x3d95a273bdcab58bU, 0x3e17d0bf3d1967dcU,
  0x3cf17356be1a90d8U, 0x3e4f29f5bc5cc1dbU, 0x3e51853a3df51c11U, 0xbe3464d83d992f9bU,
  0xbdbbc1dbbe27b035U, 0xbdcfeeca3e08d591U, 0xbd88c220bc76b6a0U, 0x3e50a03abd99b00bU,
  0xbe2441373e746e18U, 0x3b3ff4003da2a004U, 0xbcdf9758be358cfcU, 0x3d1c234c3e04daa3U,
  0xbdf927c4bd143a50U, 0x3cf6c0d03e0a0277U, 0xbe1985063d28bfacU, 0xbe0cbf62be599ab1U,
  0x3d8110bc3e016e5bU, 0xbd372a803de30b06U, 0x3ca11198bc29fc50U, 0xbe011a6a3d6b8bf3U,
  0xbbf482633e0721dfU, 0xbe227ba2be3821aeU, 0x3c9dfdcb3e4b39efU, 0x3dce49483d8690b2U,
  0xbc9ad0d9bdf81c8fU, 0xbe5dc1343e2a2f86U, 0x3dac8469bc8d69feU, 0x3dce8644be16f023U,
  0xbd3b6a853d72e2c4U, 0xbdd78e573c0ac2dfU, 0xbc6bc9d23dd5fc79U, 0xbe17ba7d3cddd1e9U,
  0x3e067e05be3b16b2U, 0x3e5f699c3e3d2d52U, 0x3e496cc0be3b4a04U, 0xbdea56f93df0831eU,
  0x3e16303dbcd2e020U, 0xbe1bbcbfbe287f36U, 0xbe4486633e02f198U, 0xbe1956033e5dff40U,
  0x3db3f647bde3db2cU, 0xbe2e99083d25357aU, 0xbe4599bf3e51b4ffU, 0xbdce6243be07466aU,
  0xbdfe6491be1079f0U, 0xbb173790bdb7147cU, 0xbdf0c92ebd9bfc26U, 0xbdecc9483d2d8314U,
  0xbde34b7d3e1fc71dU, 0xbdec8ce2bd9560bfU, 0x3e03c8a2bc14adc0U, 0xbe22e56ebd96d91dU,
  0xbe340c63bc506930U, 0xbd23d7603dc7d14eU, 0xbc7bd3233de0133eU, 0x3dd969bfbd6fa1b1U,
  0xbdef2b00bd592514U, 0x3d1851c03d4d2d8cU, 0x3d8a8717bca7e6f9U, 0x3d9bb958bd25d534U,
  0x3db1a7f43de1a2b0U, 0x3cb35ebe3e13c862U, 0xbb21a210bcfe9f54U, 0x3e02fcaf3cae13f5U,
  0x3d9dfea63d988d43U, 0x3d42531cbd67fe75U, 0xbe0f1f223d2065e7U, 0xbd91228ebd21f72cU,
  0x3df1794dbd70cdc2U, 0xbd1fd3f4bddb843cU, 0x3da019b73d80610eU, 0x3db20c6fbdd6b947U,
  0xbd929dc63dc78ee8U, 0x3dd14d123de48fd3U, 0x3de1eea83e13e58fU, 0x3dd70e66be661d13U,
  0xbdaa2816bc7cdc82U, 0x3d91cde13dd083a6U, 0x3df45bf2bdb8b604U, 0xbcec7d8bbd028dc7U,
  0x3d2a7c993da1252aU, 0x3df89833bdfdce65U, 0xbd3ecbe13c337875U, 0x3d11a8033d81c011U,
  0xbda1146e3d95fa8bU, 0xbdb3645ebcf4c24eU, 0xbd5f66463cf33ce0U, 0x3d596894bbc2e89bU,
  0xbdb595c1bb46771cU, 0xbd7c74243d6459aeU, 0x3dbb6520bc606ed9U, 0xbd9d4d36bdcd9a30U,
  0x3dc8e68f3c200b50U, 0x3da5ab8c3d9c9955U, 0xbdaaa9693e4dba2aU, 0x3d264d073d5df168U,
  0xbcb6f0d4bd4b3b0eU, 0x3d1decddbdc2b3ecU, 0x3d1952e8bda3b3caU, 0x3d8878763da7b66cU,
  0x3d7164a03d555456U, 0xbc979281bd0b0cedU, 0xbd1681073dd79407U, 0x3d18e9863b293d4bU,
  0x3d97372f3df083bcU, 0x3dc583c3bc9b1859U, 0x3d43a0dabc9bcd71U, 0x3d531ab9bc7ca2d4U,
  0xbdef13d0bd708e90U, 0xbd5940493d0bfbe0U, 0xbde98490bdc5f114U, 0x3da0bf02bdd551d2U,
  0xbda37560bc3b07b6U, 0x3aed49dc3d204ff5U, 0xbde1d585bd6bf727U, 0xbde7b047be06de59U,
  0x3daeef203c5a552fU, 0x3df128963d57eb1aU, 0xbd767028bc8bcc8aU, 0x3d0b0311bcd82e87U,
  0x3ddc8533bc587a55U, 0xbd98ecacbd61f10eU, 0x3e167db03e4ced9eU, 0xbcef32ffbce2199cU,
  0x3def8839bdbcbc36U, 0x3de5b9ffbd1674f6U, 0x3e15eb71bde52121U, 0xbdd305013d288eefU,
  0xbd37034dbe2c053fU, 0x3dafb64ebdd16febU, 0xbd573cb13d87dbe9U, 0xbcb156d8bd937493U,
  0xbc9f4620bd319f50U, 0x3d3bc4de3dc43debU, 0x3d976f8d3debb8c7U, 0xbd959bbd3d0a7ff1U,
  0xbdc7dc5b3ba8d9e8U, 0x3dbf9e8a3e095847U, 0xbd798470bcd0280aU, 0xbdbf8e1dbe0d681dU,
  0x3d8bb13bbd9cbdbfU, 0xbcda8d753d35717cU, 0xbb584f96bde65812U, 0xbdb075b83d4616c8U,
  0xbe0491c1bd47f59eU, 0xbe199db2bc24b1dbU, 0x3d0a381a3d87c363U, 0xbc8da9593df1f7bdU,
  0xbe35aeb0bda4f281U, 0x3c8095e53de5563eU, 0xbdc27ad13cec5bb2U, 0x3dbd0e67bd942f77U,
  0xbe922d09bdeb00d8U, 0x3c664e633e205d41U, 0xbe1834163d280d3fU, 0x3e0c34c33c6f1bb5U,
  0xbd9f7feb3dbfaeb4U, 0x3d8ecadcbdc41902U, 0xbd8818c5bcbec904U, 0xbb590f553d020ca0U,
  0xbdbbf4333dd9880aU, 0xbde11c65be07a441U, 0x3ce2e412bd3affbdU, 0x3dcc99f6bbe3c900U,
  0xbcec0d58bcc93f65U, 0xbc7aff953d1cfdc1U, 0xbd62c6cbbd8f2290U, 0x3e11b09cbcd77b4fU,
  0xbdc19bdabd836a2fU, 0x3cc1b1ebbce921d7U, 0x3d3a757fbe3ee1a9U, 0x3db102f93dca0a33U,
  0xbd0409173a075298U, 0xbd398d6cbbe7e969U, 0x3d350697be46c46bU, 0x3d003b913d22164dU,
  0xbc85666c3e026728U, 0x3ce5289abde0bdb7U, 0x3ccf78503e493c4dU, 0x3de4e1dcbdb76100U,
  0x3b1573cd3d3c02abU, 0xbd3383183d6e502aU, 0x3e52d084be1fb8aeU, 0x3e2c55e63d58f072U,
  0x3d8c2f3ebd263ac2U, 0x3d3f80663c342a5dU, 0x3c8805fe3df6fa63U, 0xbde03bd73e146afaU,
  0x3bf0245e3d6fe9a0U, 0xbd64f925be0483dcU, 0xbc5022153d942259U, 0x3e14c27dbdaf33efU,
  0xbe043a17bd195223U, 0xbd83023bbdd78861U, 0x3e29746f3e2ad252U, 0xbdedad1ebd877d28U,
  0x3d023cdebd84ac33U, 0x3e072541b9e8d3efU, 0xbd03df343dd3c30cU, 0x3e0930833da4b2abU,
  0x3ceb9bc13cd5e63eU, 0xba8f998ebda427e7U, 0xbe3785ddbb94180bU, 0xb9d0dfbcbc251d51U,
  0xbd5b97e13c9b7a6eU, 0xbd35cab53c7afe25U, 0x3df19212bcd163ebU, 0x3d843b3fbe2c3021U,
  0xbd36f814bd1c3648U, 0xbe059faebd129591U, 0xbc8b607a3dca05a6U, 0xbd5472af3d6f5356U,
  0xbbe59a143c363562U, 0x3e39e4f2bd0b2d6aU, 0x3d918fd5bd99adc9U, 0x3d4e2c6fbc5a0e79U,
  0xbdc0e54b3e234998U, 0x3db09d363d924ae9U, 0x3dddea363dce0f32U, 0xbb099f35bd15e64eU,
  0xbe0b9cc93d7d0653U, 0xbdea7e2cbd0c9dfcU, 0xbe14abfb3d4c449fU, 0x3d6080a3bd463097U,
  0x3e162ad7bdcb148bU, 0x3d945a163d2ba9d2U, 0xbd4dadd23bbac09dU, 0xbdefc4f53dc03baeU,
  0xbd7392ecbd9a9ec0U, 0xbd09bd1f3e2bf071U, 0x3d6444fbbdbd6c9bU, 0x3d898e65bdbe891eU,
  0xbdad85273b871a96U, 0xbe0f16c8bdc354c5U, 0x3dfc0f92bb3fef74U, 0x3dec7877be47ca57U,
  0x3e13bf3dbe04ddf2U, 0xbd56314ebc707843U, 0xbc8fb609bd74204aU, 0x3d8418cb3dddc18aU,
  0xbd889c633b22cd6eU, 0xbdc3d3febd7616a1U, 0x3c95bb923c4b6662U, 0x3dbbc64abc061cf5U,
  0xbd7ff9e03cce8645U, 0xbd89cff7bd058fb1U, 0x3d382c4a3ca35c35U, 0x3bdfd8e83c8280d5U,
  0xbdb7071bbd307b72U, 0xbd6afee3bc707766U, 0xb9db8aa8bcebdc73U, 0x3cd6b9223e55ac7fU,
  0x3d025099bd1518cfU, 0x3dc265c3bbcd1394U, 0xbdab33e7bcbc885aU, 0xbcd0d3e7bc2eb4a4U,
  0xbc9a3cd53ca68b1eU, 0xbe27e36abd8d89e7U, 0xbd974c07be1e995aU, 0xbe27e1883c8d6940U,
  0x3ddc40c2bd4be2c4U, 0xbb830fc9bb50b01aU, 0x3dd8dd59bd7677bdU, 0xbcf5204c3d3c3392U,
  0xbdf26a63bd5df9ceU, 0x3d46d9fc3e072203U, 0xbdb0354f3ce383c4U, 0xbd08c02f3e3e32ecU,
  0xbdd13d89bc44cacaU, 0x3dc5176f3c8f0a0eU, 0x39878fe7bd007e4dU, 0x3d8f6fccbd4e821fU,
  0xbcfdb9f5bd4077d8U, 0x3dcf94533ddadecdU, 0x3d6131a1be13cf4eU, 0x3e0c61943e32899aU,
  0xbccaf0a73d83de35U, 0x3bfe3bf7bdb37863U, 0xbe28effc3ddf19e6U, 0x3beb13f73c38d611U,
  0xbc0dab13bde04183U, 0xbc97335f3c8f3a6cU, 0xbba14bb6bc961a4cU, 0xbe08d494bd13d053U,
  0xbd94958f3daae286U, 0x3e24057a3da86fe7U, 0xbd21238abde0f673U, 0x3e0db851bca1f073U,
  0xbd821279bcbc1e9dU, 0xbc5e8b22bda6ffbeU, 0xbb22689a3dd90ec7U, 0xbce4e7a43c8cb43cU,
  0x3d32ea5f3e32ea91U, 0x3d6435e23ce02bfaU, 0xbd657adcbe1cdcc6U, 0xbdbbeb223ded3f4cU,
  0x3d6e9a1ebdf3fa02U, 0x3bf7ff2ebd5696b6U, 0xbd9a4b89bd083e70U, 0x3d72bed63d005182U,
  0xbcaabb443d12ea3cU, 0xbe44db543cbed85fU, 0xbcf122d23e49664eU, 0xbcceb6ccbd3333c7U,
  0x3c91a91f3dbc9d6dU, 0x3cc90da0b7ba9219U, 0xbe8a5423bd7a0a09U, 0xbd56037ebd989ea6U,
  0xba7572ed3df5954fU, 0x3c4fdd053e129743U, 0xbd8cad623dbab53dU, 0x3d6fd4973cfc8dc9U,
  0x3cfd7b363e00574eU, 0xbd29c52abc6e5577U, 0x3e09ab323ca02359U, 0x3d7d61a6bc921f01U,
  0x3e0084f83decabd5U, 0xbe19a958bdbe5367U, 0xbd9d080b3d05c79bU, 0xbe37fe1fbcdbcd55U,
  0xbc64ebbdbd7eaaf7U, 0xbc99e7f73e0a799bU, 0xbd5c6264bda9e37dU, 0x3ddc4f623d8cd92aU,
  0x3e1a03773dbe8626U, 0x3e0f44693dc504a9U, 0xbdb8604cbe845838U, 0xbb4d6627bdfb79b9U,
  0x3da81b643e1920ffU, 0x3ca581ba3db8532cU, 0xbd7c818a3e026ceeU, 0xbdcbe43a3d56be28U,
  0xbd6fab29bce12bdaU, 0x3db5975a3de54810U, 0x3e067f013d3b7299U, 0x3d19c7823e64b5d4U,
  0xbd8251553e1cb423U, 0xbcd20a083cba329fU, 0x3cba867c3d58f0e1U, 0xbc1a316ebdb68c5fU,
  0x3db916bf3ce47fe8U, 0x3d404b893d8a95c6U, 0x3cc800913d70c4f5U, 0xbe11fabfbe03ecffU,
  0x3d9be65ebb7fc514U, 0xbe1cc6043d8d6785U, 0xbd27fefc3dde44e7U, 0xbcdd75e6bd2844a7U,
  0xbc35f47a3e0f6a9eU, 0xbd09edcabdafd53cU, 0xbd44cd453cc2345aU, 0xbe0edb84bb5ce955U,
  0xbd82576ebd25f695U, 0x3e639725bce1dde3U, 0x3e296ceebe03f60fU, 0xbdba44ff3d397be0U,
  0x3e2cef14bd0d7212U, 0xbe44798e3beeb292U, 0xbcc327c93cd4af08U, 0x3e348338bd240c6cU,
  0x3d74341e3d9cbc11U, 0x3dc17b823db20d50U, 0xbe392b21bd3b59e4U, 0x3d92b8a33d9c6d31U,
  0xbc4633b73cd5c521U, 0x3deaf3143dbd2227U, 0x3dc4ea62bd3ae5eeU, 0xbd06db5abcf2641dU,
  0xbc7bb7a13c39f9f8U, 0xbc8743983df40f63U, 0x3d836169bcf02e64U, 0x3e43ee30be053dbdU,
  0x3d6269fcbd180679U, 0xbd227e59bd447acfU, 0x3d9c27a23dc14663U, 0x3cbb6665bdb9785dU,
  0xbc8f1c8f3d9aa26bU, 0xbd8136693d8ca62cU, 0x3d01a764bcb4d78bU, 0x3cb6b4d5bcfe9d2eU,
  0x3deef7b43dd3e3b3U, 0xbdaec48e3c482d74U, 0xbbc73040bba2ae72U, 0x3dcd3b65be27cf0dU,
  0xbe041622bb2fe9b1U, 0x3ca926773dd3cb36U, 0x3e04d56cbc8cd8c4U, 0xbdc8213fbe1b5d77U,
  0x3d02a13e3d8f4426U, 0xbc84a7813dcd1d66U, 0x3cad69593d53f142U, 0xbd611794bdaccee8U,
  0xbd1d277abc9c372aU, 0xbd71271c3df7916cU, 0xbd0f516d3e22dc54U, 0xbc97628d3bd15f76U,
  0xbdcf964cbd481b3bU, 0xbd39128d3d4bfd43U, 0xbc462e293bab5470U, 0x3d981eab3d6675c3U,
  0x3d6d39ec3be590bbU, 0x3d9834d83de8203cU, 0xbd4449683e5d939cU, 0x3d4055f9bd818085U,
  0x3e2a01d23cf07279U, 0x3daae8f6bc1dd6d7U, 0x3d4de323bd096644U, 0x3dea21bb3e560aabU,
  0xbd171624bc1f3b26U, 0x3d142a773d8a2428U, 0xbd627df83dff910aU, 0x3d97becfbda54444U,
  0xbb659467ba94b1b6U, 0x3c6de967bdacb7bdU, 0x3d52896a3db0f987U, 0x3e7a27383bb1d21dU,
  0xbe2d290abd3b109bU, 0xbc00388a3e318916U, 0xbd4b6385bd89f157U, 0xbd3e320fbca0f919U,
  0x3d0618813d0beaf5U, 0x3da559b03db60be4U, 0xbd05e31ebda715a5U, 0xbb7ed028bd8f0969U,
  0xbd14918bbd15341fU, 0x3dabbb9b3d53971aU, 0xbc9b17ccbd46d6bfU, 0x3df00c993ce5a231U,
  0x3b84e529bd999eb3U, 0x3b2a546cbd43b1faU, 0xbdfd4e32bcad70e3U, 0xbc28d5bdbc6b49aaU,
  0xbe1483a8bddfb868U, 0x3daa0066bceb3090U, 0xbd9df006bdc548cdU, 0xbd809acdbd285b00U,
  0x3ca8e35bbe1063abU, 0xbdfddea5bda62c28U, 0xbcda908ebd777408U, 0x3dd1199cbe3333fdU,
  0x3d3802b4bd122d78U, 0x3d5afbf2bcf8297cU, 0xbc99908bbb078da0U, 0xbb26599bbcddbb32U,
  0xbde91c3a3d10443aU, 0xbe07b9eabc911a22U, 0xbdb5a2ab3dce6db2U, 0x3d490913be09ab9dU,
  0x3da57526bde2e6c6U, 0xbdef13a9bdb90d53U, 0xbdc5c80abd375acaU, 0xbd0894b73ca47d77U,
  0x3db0bf1bbd0cbdc2U, 0x3c3317f1bd724272U, 0xbe028346bdc9804eU, 0x3d71a7b23d3bc122U,
  0xbe1a8feebd7a26e0U, 0xbdaf50a93d2828c3U, 0x3e075d41bcd34533U, 0x3e0bff533dc7924dU,
  0x3c8017c53ce59d14U, 0x3e3a00dc3d8231caU, 0xbe58acf5bd6ba8cbU, 0xbe0247493cafb3ccU,
  0xbd28f6cbbd3314adU, 0x3a342f88bd8ce515U, 0xbdc1fabbbcb2d09aU, 0x3d35232d3e3de43cU,
  0x3d800cd1be46749fU, 0xbd662fc13c03af4aU, 0x3d341d963cf81001U, 0xbe0740f53dfa7c24U,
  0xbc87210b3d79b170U, 0xbe77aab4bd9e8486U, 0x3d134746bd8f4394U, 0x3dcc31e1bd6337b8U,
  0xbc893262bd4dbd44U, 0x3d23a2323dd979f3U, 0x3dd745373da0ca81U, 0x3d9a86263c5398d6U,
  0xbe6420723c80ad5aU, 0x3d5209413c018d25U, 0x3d96a3d8bd90a184U, 0x3d464bc33d664d22U,
  0x3d4771843e2ad157U, 0x3d425d5cbe751e20U, 0x3dca67a1be157d81U, 0xbca06fae3deccc3aU,
  0xbd98cd0cbe29d447U, 0x3c0bf70e3e006700U, 0xbbde58bfbe22cd62U, 0xbdf249e1bd73ce63U,
  0xbe7ea087bd0998aaU, 0x3e10e27f3c548174U, 0xbcff46e13d3ee0d3U, 0xbdc6ffb63d1cc86dU,
  0xbdb520e5bc90ad65U, 0x3def8c823dcd8327U, 0xbe0ae1c6bd96db63U, 0x3c32226e3e17fb9bU,
  0x3eb35eeebd0da78cU, 0x3d86224f3d10db74U, 0x3d814bb73cddf80eU, 0x3cdef914bcafa2e0U,
  0x3db276e73cf63f15U, 0x3cf034a63e402a65U, 0x3e0689843db13e59U, 0xbe2871fa3e2f2094U,
  0x3e08dc973df4d0a5U, 0x3d724b3b3e0cf7a2U, 0x3c89b4d7bbad5ebdU, 0x3d98b9d03d6e33c8U,
  0x3dd76148be453b5dU, 0xbddd9150bb6c1c6cU, 0xbde2df0ebd913c38U, 0xbdbc77cebddec5a6U,
  0xbde3f7ca3dbce7e6U, 0x3acde276bb557dc0U, 0x3c9d888b3d845b3cU, 0x3e6221f73e17a9e4U,
  0x3c9fcaddbd01ef54U, 0x3e1ece063cbe8f60U, 0x3dcd2cc1bdffbbc6U, 0x3db3ccc73e65dacbU,
  0x3caa5bdebd0e70aaU, 0x3e031d263d180c1aU, 0x3d805f97bd025af6U, 0x3d25bd8abcbc325cU,
  0x3cdc065c3dab9679U, 0xbd3d0eb73d937812U, 0xbc1396af3d53fb8aU, 0x3d84c8ed3e09ed0eU,
  0xbc194f703d3d3877U, 0x3da61573bc23137aU, 0xbdaab9e73b643c84U, 0xbe01399cbd3fd25eU,
  0xbe0629f43d359c2dU, 0x3db20c573dafee9fU, 0x3e3a7b1a3dd9d368U, 0x3e1c09e43d70245dU,
  0xbd2c83043c3ec9c9U, 0xbb0acbfcbbd3a0b7U, 0x3e2dbf14bd67b036U, 0xbd04a08a3e04c0edU,
  0xbd4cef973d14036cU, 0x3dc39d803bfb4f95U, 0xbdf3cbc2be159373U, 0xbcfaefa73e464fc9U,
  0xbcf457e23e3b1abfU, 0xbc1320c4bd20b276U, 0x3da2c41bbbe69e37U, 0xbdd899d1bd266de8U,
  0xbdf96fe6bde43d97U, 0xbda2a29bbc156a12U, 0x3d01b1eebde88fe7U, 0xbb83c17d3e1f028aU,
  0xbc7f7612bdbfe378U, 0xbc34d56abd605cbfU, 0xbdf3f2b13da67320U, 0x3cb818fbbe03cadbU,
  0x3d440a253d1f169dU, 0xbdb339623da6a57cU, 0x3decb0fdba93070dU, 0x3dbd30503d56adb7U,
  0x3d8f9d283ddbb4f9U, 0xbde1e2713e844719U, 0x3db0c1713dc36060U, 0xbd8d6b853df17165U,
  0x3d453198be3f3670U, 0x3db1b4db3d8d89b2U, 0x3da3e16abc817236U, 0xbd26ec8bbdf0b01bU,
  0xbda6125bbe2ccc26U, 0x3cd6cb82bce76744U, 0x3da932d93d9cbe56U, 0x3d5164283e1aa9d4U,
  0xbce14f0b3df87cacU, 0x3b5bbc063deafcc6U, 0x3cf9dc173cc92c19U, 0x3dd0e0853df34c7dU,
  0xbda04bce3dacba68U, 0x3d0a01273e43f2a5U, 0x3e145961bd9adeaeU, 0x3ddabbfe3d08b47dU,
  0x3c1e696c3bfafa50U, 0x3c62e5f8bdf991beU, 0x3df1d229be068eaaU, 0xbc0e49653df0ea93U,
  0x3c9c4121bb8b8040U, 0xbca7eb73bd221b31U, 0x3d51feec3dec6f53U, 0x3d647fabbd2e71a5U,
  0xbae200803d1808a8U, 0xbd88a13b3dabb462U, 0xbd952f783e373694U, 0xbd9c6b873dfd4424U,
  0xbda7c87ebdc4cd52U, 0xbc971aa9be3069c5U, 0xbcafb3ebbdb99b6aU, 0x3d4edf473e12b732U,
  0xbaaf633cbd757b37U, 0xbd456bcbbd668a69U, 0xbcba18dfbda21272U, 0x3e2b3731bd32d375U,
  0x3dc3653dbd0a4e9eU, 0x3a34cf123d4b9672U, 0xbc430e79bd3824cfU, 0xbd8cbec4bc927cffU,
  0x3db1ac883d5165e8U, 0xbd6d89213e186eb1U, 0x3c24ff19bdaf696dU, 0xbcb93442bd67fcacU,
  0x3e2f04213d6275dcU, 0x3db27b503dbb13f2U, 0x3d565fed3db0a196U, 0xbd24bfd1bd8c4f6bU,
  0x3da5e39ebe680b73U, 0x3d01c2ddbd98f0a0U, 0xbdaa4880bde2e83fU, 0x3c88305fbda99166U,
  0x3defcc42be4749d2U, 0xbdcda3ee3cec0dd1U, 0x3cb5635e3d93ff3bU, 0x3b0ce82cbda32d30U,
  0x3d47ae22bdd8b188U, 0x3d1fac5f3d1e8b36U, 0xbd31756f3d07ac6dU, 0xbd5c9623bd88c45cU,
  0x3d949e4e3dc67a93U, 0xbd16b3a13dd02ea0U, 0x3db12bbc3d772087U, 0x3d71de353e378d04U,
  0xbde26d183ceb715aU, 0xbdd8a0573d99af39U, 0xbb0a46f0bd7f9a0fU, 0xbdf7f0d7bd5da738U,
  0xbd5ec5653d70b59eU, 0x3de21d1cbdffbbf3U, 0xbdade2343d275c3aU, 0x3e3591293db03078U,
  0x3da9ce953da2d17eU, 0x3d839797bda7ecdcU, 0xbdc66296bd9a904bU, 0xbd2fe9283b5ce96dU,
  0x3d0122fb3e240737U, 0xbc852095bd83951bU, 0x3cfd06da3dadc3ceU, 0xbd65badabd836adeU,
  0x3dd759bdbd24753cU, 0xbdf80cf0be057ac9U, 0xbd5860d13e4df7baU, 0xbd3914493db93101U,
  0x3c9626a7bd92ca5cU, 0xbc552b38bdf95c17U, 0x3d90ed72bc589373U, 0x3e03a052bde69c98U,
  0xbd9db2f5bdb3167dU, 0xbc8e2d3e3c1c4f78U, 0xbd64beed3d2f4874U, 0x3d89cee9bc777276U,
  0x3d902e8a3ddfa840U, 0xbe6cb5eabda81711U, 0x3bdd5c52bda0c03cU, 0xbd58d099bd211866U,
  0xbdd313b83cf45970U, 0xbc58867abd05fb0eU, 0xbc90fbe03c3563edU, 0xbd616f4d3da5c463U,
  0x3e4a1b2ebd15f7b7U, 0xbc562a53be0ce928U, 0xba93803a3dcfd4a9U, 0xbda15a11be2f6a69U,
  0xbe2cca39be19cb40U, 0xbdbd4d9bbe1e9bc0U, 0xbd6d820f3c65f06eU, 0xbbd91164bd95ff03U,
  0x3e01f9063ceb3f82U, 0xbe166b87bdc52377U, 0x3d9ae79cbb8d072aU, 0x3d90805ebdb5bd3fU,
  0xbc8b9fe43bd0f973U, 0x3d1d547dbd961453U, 0x3cc2f2d3bc9d1d90U, 0x3d8ad7673d820806U,
  0x3da0888f3d736cb6U, 0x3d168bf33de0ee8bU, 0x3c8b2b75bddf8de4U, 0x3d8e0d603de8efb6U,
  0x3d3cd925bd499bafU, 0xbe15d679bd40fb7cU, 0x3d7ab6243cd2545aU, 0x3e1599d73dec31f5U,
  0x3e26408cbcc4ee3fU, 0xbd835b7e3dc390a3U, 0xbd53df533d9b6afaU, 0x3ccb32c33b819cedU,
  0x3d753a3d3d9371b7U, 0xbce9abc83e64da1eU, 0xbcd20d663e3db75fU, 0x3d0867e0be0cc83aU,
  0xbe248e143a8b9f70U, 0x3d2dfaaf3c91d178U, 0xbd281869bd7a4f4eU, 0x3df62b983e0630d8U,
  0x3d0af7fabe229b48U, 0xba8185c5bcc8db54U, 0x3e0c93b73c443e51U, 0x3e1768123da5daa5U,
  0xbe069f20bae20cc5U, 0x3de3bdd13d46d685U, 0x3dcc8f21bc19906fU, 0x3afc387e3cbe186cU,
  0x3ddc2f1c3e1d3ae1U, 0xbd3a2037bdc42281U, 0xbcafe61abde4b77bU, 0x3d8d2d673da20eb8U,
  0x3c9e6f6a3da0e0b5U, 0x3be1d9c33e083db3U, 0x3de9bd2bbd8616feU, 0xbde4787dbd198d00U,
  0x3dd0b8cabe16c822U, 0x3e6839a43da2506cU, 0xbdc2e41d3e1bef71U, 0x3dd18e70bdc0d28dU,
  0x3d0533523db54388U, 0xbde553383daf432bU, 0xbe135b0d3c9c6df9U, 0x3c653f4b3d01327eU,
  0xbd97888f3d5ff2eeU, 0xbd14ecc0be03d904U, 0xbdfd6d9bbdbe612fU, 0xbe68c52fbe05200aU,
  0xbd5d91f03d04872aU, 0xbd04dce93d1b1c4dU, 0x3cca6e89bcf6bc27U, 0xbd8c14c9bda056c7U,
  0x3e15a2a2bd23e124U, 0x3dd04f7cbd950ba9U, 0x3d076077bcb7fc4aU, 0xbe0f37c0bdbced73U,
  0x3c2686c9bcc08a51U, 0xbc1abce5bdc15428U, 0x3dbfa491bdecb5afU, 0xbd0349323cb42325U,
  0xbd6a0c373d08323eU, 0xbb4896d43e02135bU, 0x3da83c8dbe126eefU, 0xbd15fb753e3e4815U,
  0xbdaa2808bdced039U, 0xbdfc2a31ba951faeU, 0x3e326a7ebd69460fU, 0xbe13e379bd5a6cadU,
  0xbda551fb3dd6bca7U, 0x3d0ea77cbe1e589cU, 0x3cd261f4be076e7aU, 0x3d11ab71bc0e8994U,
  0x3d357fc3bd0c1b80U, 0x3d85c66dbd8fa5bdU, 0xbc818c3bbd67d4f7U, 0x3de63f8e3dc75b11U,
  0x3c4509b73d94a523U, 0x3e108a39baebfceeU, 0xbe3f2820bd9d2e82U, 0xbd15e07d3d79913cU,
  0x3c8d16073c3223adU, 0xbd9576cb3e18bf3eU, 0xbdc6931b3de75571U, 0xbd2252fa3d6c0640U,
  0xbc657d79bd3bb5f2U, 0x3deed170bdadcc34U, 0x3da7c88c3b837104U, 0xbd47b1403bc59a94U,
  0xbcfa9b743d893cd3U, 0xbd2e8570bdfc3e2bU, 0xbb53f4b6bbfc183cU, 0xbdc630393db1d38fU,
  0x3d6bdd633ac9f800U, 0x3d8be67b3e28721cU, 0xbdd326de3de90068U, 0x3d2f2b2f3d5fffacU,
  0xbde521d83c95d1f2U, 0xbc8ac508bdb6d3e2U, 0xbc384d1b3da6c9d1U, 0xbdb7a4b83dc76e85U,
  0x3d113294bcd2496dU, 0x3d95b63a3d0601b6U, 0xbdb665d63d8787bdU, 0xbdd0e8b43da3346fU,
  0x3e2e4741bc17bf6fU, 0xbd8b20f4bd0d771aU, 0x3d5a95c9bdab8e45U, 0x3d4aea203d9f3375U,
  0xbdd7da953e6369baU, 0xbdb6f70cbdaa0edfU, 0x3d92d326bd159e33U, 0x3c81f5f33d4b71d6U,
  0xbd5cbf8c3d4f89e8U, 0x3c99f8063d6aa88aU, 0x3d4adf3c3d24dbceU, 0x3db3c20a3d0d050eU,
  0xbe35b3e63d7223a0U, 0xbe3861b03d5b80beU, 0x3e0451303cf34e97U, 0x3ddc76cbbd42c578U,
  0x3dcd9880bda1cdbaU, 0x3da8064ebd110f62U, 0x3e13b21fbe055136U, 0x3dc8a7fe3c2731faU,
  0x3df2af49bd303ed6U, 0xbdb91410bd31593fU, 0x3d264be3bb849c2aU, 0xbe24c657be40043aU,
  0x3dbc84d8bd78ae62U, 0x3db704b43d67eb8bU, 0x3d37d456bd16d4e4U, 0xbdb41916bda1fb9dU,
  0x3d975917be011387U, 0xbe1029fb3e2a0ff7U, 0xbdf7b9f5bc99d73dU, 0x3d8437973d9a4dc5U,
  0xbe146e1cbe020ec9U, 0x3db86a22be3b51d8U, 0xbcbd5869bd403d97U, 0x3db6ba6bbd9e26c4U,
  0x3ca105073c81dae5U, 0xbd39d9b4bc480e21U, 0x3d99a63abde1bd98U, 0x3cb49c79bdcaa73eU,
  0x3e19142fbdbf8103U, 0x3dfc47f73d7acc6cU, 0xbdf86d8f3dd1265bU, 0xbd23c0bfbe49c7f0U,
  0x3cbd76163e1e6602U, 0x3e26eac63cc40f0aU, 0xbb832bcdbcb20f63U, 0x3c9dbf4f3c2a2e3dU,
  0xbdf8ac253d1f7670U, 0x3da3181a3cc6cca5U, 0x3dfd3517bd4db88bU, 0x3d34ccf6bbc93d0aU,
  0xbe1d1cdd3dcde933U, 0xbe066d2c3d80fbd0U, 0x3dc371f23dcfd939U, 0x3d2a24bf3d1518daU,
  0xbe35daa13c94a4c7U, 0x3c5b2cd53d58eab6U, 0xbb12fe65bc90c7f8U, 0xbce291263cca91fcU,
  0x3d639b7bbb951516U, 0xbe143d223d6c0f12U, 0xbc7a055cbb6ebde6U, 0xbd3210dbbd390b76U,
  0x3d4290edbda1e293U, 0xbe87a9b8bb89e030U, 0x3e38c0153d4ab45bU, 0x3c882c92bddceb78U,
  0x3d8291a3bd4dee1cU, 0x3c7e525b3d84c3b4U, 0xbc432a93be219ef9U, 0x3e16ed38bd87c1a3U,
  0xbd4ab5b1be2cda8cU, 0x3da16772be08bb97U, 0xbd47fcf6bc35ff22U, 0x3df849f23db2fd61U,
  0x3dfdac69bd910300U, 0x3d9581313ddd3928U, 0x3da340373e332c3dU, 0xbe3b65253dd4a9deU,
  0xbd70acdc3d9ae114U, 0xbdbcb3c5bde3afe9U, 0x3d53a4983e0297aaU, 0x3ca71fa5bda93abcU,
  0x3e5177503d5a71bdU, 0xbd7973173e113fcbU, 0x3d5d9d82bbd0b506U, 0xbd9565acbc96dd7cU,
  0x3d498aeebd76ef61U, 0xbe0bc596bda66a88U, 0xbe1c0336bd6a3e37U, 0xbe2c98493e00751aU,
  0x3e1202423d22ebd0U, 0x3c467dfa3e823f77U, 0x3c09e410baeb92fdU, 0x3de9fc143c7b0051U,
  0xbb6325873d916975U, 0x3d9a0dd3bd96c887U, 0x3d44467f3e1bbd49U, 0x3d6023f03d96da58U,
  0x3d197f33bce8518fU, 0x3debacfe3d308513U, 0x3deca8a3bd46141eU, 0x3d3ad86cbd060186U,
  0x3d4c5d183dc0b247U, 0x3c1d75f93c910978U, 0x3c9dfd43bccdb4b4U, 0x3dcc6608bd45e038U,
  0x3e1100d03d6e026eU, 0xbddb89d53e1166b9U, 0x3d148a113bd3d4ceU, 0xbd627fb73d718758U,
  0x3e3bb415bc2511a5U, 0x3da4e1783cef499bU, 0xbab608cc3e18138dU, 0xbd29511dbd58761cU,
  0xbe1481aabcd37e52U, 0xbc2156bfbe299b5fU, 0xbd5f24cabd33070eU, 0x3e8f71253e0ea1efU,
  0x3dd43163bdef5aa6U, 0xbd9f3b973d715bb1U, 0x3bbec09b3ba253c0U, 0xbddbf62dbd2ab99eU,
  0xbcd494ed3d6be67fU, 0x3dbd0eb03def4b38U, 0xbba7be8e3d850040U, 0x3d8fd7ad3d80b16fU,
  0x3d2ad805bd3f827aU, 0x3e05c0cdbc40031cU, 0xbd77bbe23b9003dcU, 0xbe12928a3dee93acU,
  0x3db9b305bd1034e4U, 0xbc936d35bd7cfd1bU, 0xbc6f5284bd524368U, 0x3e340249bdfc00a2U,
  0x3cb8fe483d9a3a3dU, 0x3e2b0690be6b0dc6U, 0xbd5e08fe3e0eda73U, 0x3ca2d4d03de00e99U,
  0x3d317948bc7acd58U, 0xbda1ed873cbb4771U, 0x3da70bc63da4bc04U, 0x3e3689b4be107cbbU,
  0x3da30d463d6e21d7U, 0xbd0d8789bd0d96c8U, 0x3d23e545bb873f63U, 0xbd019544bc947481U,
  0xbd1497943d8b796dU, 0xbdf9e29d3d869667U, 0x3c37532ebca08ebaU, 0x3e6e9326bcbe037fU,
  0xbdc6f736bdc68e50U, 0xbde63ac1bddf2c88U, 0x3e11ff833c3ddc6fU, 0x3b710ce93d4e4fe5U,
  0xbd1bc474bc6a68e6U, 0xbdb64aadbc0b17c9U, 0x3c25968c3d0cbdc9U, 0xbe0b83d1bdac2ab8U,
  0x3b6683debe3b9f4bU, 0x3e18e02ebe91eb6cU, 0xbdd86f28bc9b8e72U, 0xbdf23bc43e190a1aU,
  0xbcee9aef3de603acU, 0xbdff5d2cbbd2ba77U, 0xbd8df0923cdb9d13U, 0xbe277d06bafa2c38U,
  0xbd82a3263c1d76b5U, 0xbe2351f3bd09b612U, 0x3ce8769abd09d86aU, 0xbe1285abbc85b6f7U,
  0xbe13a9c83db93713U, 0xbd54f21a3b8c5e1cU, 0x3d94590fbcbee256U, 0xbe0bf27d3e061632U,
  0x3be51bacbd57131bU, 0x3acace153dd0886bU, 0xbd047e4dbc17235cU, 0xbca54f08bd8ed1e0U,
  0xbd95e5b4bdeed627U, 0xbc352036bdb88a28U, 0x3de57f86bd325c4cU, 0xbdf61a843c4a3bf8U,
  0x3d8a3aef3dcf856aU, 0x3e2b16bebdc3220bU, 0x3d47c1cd3e24da73U, 0x3d6c5a963db9054dU,
  0xbe07a5973d95c9d3U, 0xbca2b3573df30da4U, 0xbe03afb03cf353caU, 0x3d8249fb3d84c887U,
  0xbc131972bea1b8c0U, 0xbdc1ab283e1b75f5U, 0x3ad48440bdac0053U, 0x3d7672893cb1c147U,
  0xbe0de2f63d9f37a2U, 0xbe40c50abda56d71U, 0xbd279c93bdc15a9dU, 0xbc813ce7bdac3656U,
  0x3cf6f2ef3d81205aU, 0x3e26c73cbe0f55ccU, 0x3dadd7d63e209dc1U, 0xbd1207c4bdb79a68U,
  0xbd847be63db9566bU, 0x3d9b4d5f3dbf6ff0U, 0x3d75ca2b3cbd25c0U, 0xbd16ae40bdb82125U,
  0xbdaa41ebbdafbf3eU, 0xbda398e93df5583bU, 0xbe25e4433cdbf9cfU, 0x3acc32c03dca719eU,
  0x39c44681bda1eeecU, 0x3ddaa43dbc4cb0d9U, 0x3d6d48acbddef070U, 0xbdac0d753dc46ab8U,
  0x3c2cf08e3dced31aU, 0xbcadacf4bd9383c6U, 0xbe176bffbe1b4369U, 0x3cc8d7563e099900U,
  0xbb861b773e383a35U, 0xbdb113523cf0ff51U, 0xbe5dc64bbe534368U, 0x3c60ca7abde74c44U,
  0xbd51a7c63dce2e3bU, 0xbcd52323bde17dbeU, 0x3ded0089bd3cce69U, 0x3b75400c3d5d9746U,
  0x3dc3e99a3b93a214U, 0x3e36c4c73d232733U, 0xbde9b4703d8e791bU, 0x3c24c5183e15dfdcU,
  0x3ddeefadbb50b8d8U, 0x3db3bdacbd243d31U, 0xbd3036b03ddf9543U, 0x3da4375cbd9e6fb8U,
  0x3ba414dcbd4e7ee8U, 0x3d2f9b073dcc41a2U, 0xb91d4a003e2df3f3U, 0x3c026c8f3d79390fU,
  0x3d3320623d9d9fe8U, 0xbc87e570be03d465U, 0x3c5e9375bda78290U, 0xbc9c70c0be55b47fU,
  0xbd8266f7bd286874U, 0xbdce3563bdde04e9U, 0xbc866b9fbc28c583U, 0x3d4120923d43cd14U,
  0xbd9c227abd8ff85fU, 0xbdbadc4dbe694f54U, 0x3d7fd2cfbe14a2abU, 0x3b971bd23d0a6170U,
  0x3d8f5bdb3e601eb8U, 0x3d90cf74bdc948fbU, 0xbcb4a552bce2d781U, 0xbdcd8bd33c78b49dU,
  0xbdd29877bc1eb84cU, 0x3dac15d53d639a62U, 0x3b7fc6f83d43b5f0U, 0x3e61416f3d9658c0U,
  0x3d65bb48bc6a3ac1U, 0x3e22765ebc723427U, 0xbdb8a34839196840U, 0x3d769cfbbd8b355cU,
  0x3bb098633d43e22aU, 0x3e02abf3be008f38U, 0xbd8b06fd3d8cffe2U, 0xbde06412bd191dbaU,
  0xbddd253d3d9ad89fU, 0x3bb67396bce2e95dU, 0x3ddf9d6a3cec647fU, 0x3d1800903da89ef6U,
  0x3d885da9bd3f3d7bU, 0x3deab558bd110438U, 0xbdb003313e88e493U, 0x3d511f613e419828U,
  0x3c793849bd3af389U, 0x3de4afaa3c5f98daU, 0xbd6fe2bc3d761e44U, 0x3ca74215bdcd5d02U,
  0x3c756b1a3db8f0cbU, 0x3ce990403d263326U, 0x3ca2980d3e543ff8U, 0xbe0ed19e3d8f3ac7U,
  0x3c4de0f43dca531bU, 0x3ddfa4b0bc75e8daU, 0x3e086cc5bce5bd0cU, 0x3d57f5003bfcdb49U,
  0xbd7c744f3dbe1238U, 0xbd61f832bdcce74fU, 0x3e110b96bd60ad44U, 0xbe4525ba3dc9765fU,
  0xbcff7ec9bd8eff24U, 0xbbbc088fbda88c06U, 0xbd5ed7783d328333U, 0x3da5d4b03d84041cU,
  0x3d809bcabd61cf9aU, 0x3dba2e0a3d85743aU, 0x3d557b5d3d27671aU, 0xbd9430b03e2ef765U,
  0xbc2a3687be04882eU, 0xbd909ce83d7d0133U, 0xbd359b90bcead1ddU, 0xbe1679edb9b9e478U,
  0x3dfb67b43d19201aU, 0x3dd4a76a3dd0a280U, 0x3d8bd2753d0901f9U, 0xbd7501f13de17f13U,
  0xbdee8ef43d8e1ed5U, 0xbd9ec5f7bda50e29U, 0xbd87d4e2bad3c492U, 0x3df7858fbd692dacU,
  0xbc6a158f3e5b5efdU, 0x3d426154be0220a8U, 0x3e839a4c3d6511c8U, 0xbd4e1774bcd881a6U,
  0x3ddc0cf7bdea135dU, 0x3d1d425e3d77e0ceU, 0x3d0f092fbd963ac0U, 0xbd5b65283daee5d5U,
  0x3d7440e23d174eaaU, 0x3e0ba0debd2df0f5U, 0x3d9221343dc61c5eU, 0x3d825b7f3c1a0729U,
  0xbcd491f9be32176cU, 0xbcf7e6cbbdc0c172U, 0xbcc9bfb93bc6c622U, 0xbdce3540bd2a4c76U,
  0x3da3c90abb989788U, 0xbdda82a53d925702U, 0x3d87a0b8bd951cd9U, 0x3ced4dab3d1cf51aU,
  0x3e0b5f483e1bb5bdU, 0xbd4b33763dabf7a6U, 0x3c82b7623db3eb33U, 0xbd9fa445bdb51a5fU,
  0x3db918223bd6527aU, 0xbe17b50bbe01fafaU, 0xbd93811e3c7f81e2U, 0xbde647263d1f9121U,
  0xbc544bb23da441a8U, 0x3d97eccd3d407de2U, 0x3de66469bcaa85d6U, 0x3cdfd804bb13d490U,
  0xbd10f44fbd9d46f8U, 0x3bdb57e5bd598a34U, 0x3d8b4bc23d12b2bbU, 0x3c85562abd753dc4U,
  0xbd9f48a4bd4befbaU, 0x3d72f096bd1aa602U, 0x3d128fef3c0426e4U, 0xbc2ad4ea3d1f20cdU,
  0x3df8f97d3de0f556U, 0xbcc51b473b1ba156U, 0xbd1d592d3e8d5d8cU, 0x3e68f93ebd1dd5baU,
  0x3c1166b0bcdd13e5U, 0x3bc0017d3dd3d231U, 0xbe1ca6a43e05a975U, 0x3d5ab54dbd9047f0U,
  0x3e1031663c2e4711U, 0x3c3109043e11f70cU, 0x3e10218dbe0d3159U, 0xbd81ff233c6e5bc4U,
  0xbcf503883dbf9b63U, 0xbd3edca1bbb41577U, 0x3cd4cd9cbd99d1b6U, 0x3dc64a003e1d2d8bU,
  0x3e358d9a3ddc47b3U, 0x3c2ccc493e63f471U, 0x3ddde5f9bd88cd87U, 0x3de7c14a3e1c9011U,
  0x3d6ba10d3df8b69aU, 0x3d507c27bdf39ddbU, 0x3d45583f3d8959eaU, 0xbcc0da99bdb8bf9cU,
  0xbe3d652a3df4267aU, 0xbdd45acbbc2364ceU, 0x3d8b02cb3d36712fU, 0xbd20ee09bcb9fe40U,
  0xbe35f1a43c9a1815U, 0xbca4fbd03d8d2457U, 0x3ca5d80b3dfc4997U, 0x3d90f0b1bdd35292U,
  0x3d6d4db63d4b6ed5U, 0xbe05f79abd407d82U, 0x3d4ce4a83ba98633U, 0xbd394c223deff6d6U,
  0x3c4fa111bc133f7dU, 0xbdb222c2bd6d1d80U, 0xbde5a095be190abaU, 0x3cafe4ce3d05c6a1U,
  0xbd808815bd1fd4deU, 0x3d42d37c3e2fe803U, 0x3e408b853d4d8a1bU, 0x3c0c9dcf3d8ee74aU,
  0xbd144b6ebd353c26U, 0xbd895a1fbcdb1446U, 0xbd9072773d4d3b6cU, 0xbda2ebe6bd3a10eaU,
  0x3d67627fbd9a81a1U, 0xbc4ea9593d27f35bU, 0x3d1dec4338b0a000U, 0x3d08f0b6be2a13e4U,
  0x3d6bd946bcc26078U, 0x3e546ffabd780351U, 0x3d40ce993d073105U, 0x3cf1af8fbd1fd65eU,
  0x3dc5d09abcdd634dU, 0x3b391b8bba989733U, 0x3d916c12bd9d423bU, 0xbc97c0ee3d8fff8fU,
  0xbcd257debd86da66U, 0x3e46a4103d935dc2U, 0xbd39909f3c6148b3U, 0x3bfc2134be289ba0U,
  0x3d2775253bf28cdeU, 0x3dd2179f3da43550U, 0x3dadbbb5be1541adU, 0xbcf524233e175b69U,
  0x3e1226bfbd0b8682U, 0xbc786af43df83484U, 0x3cf6c8c6be4b2421U, 0x3c25dff1bdafa476U,
  0x3ccb3016bd49a2e8U, 0x3d1fe442bbf7f2e4U, 0x3d9bbdb83db20ce9U, 0x3e09075f3d8999f5U,
  0x3d12dea43dbc8c7eU, 0xbd2f18e6bdfd8dcdU, 0x3d0e44b13d62ba7eU, 0xbe0471aa3d1b14a5U,
  0xbd76f30ebcd3beccU, 0xbe2c9fde3e11e82aU, 0xbd7bbd61bd9ac96aU, 0xbd93d5233d5ff9b9U,
  0x3d2afbcd3dca5c81U, 0x3ca2c2c43cd486beU, 0x3d0f28a23d1690beU, 0x3dcf1cc1bd6b2d1bU,
  0xbe31ef4cbd814daeU, 0x3de306c03d8efab9U, 0xbd2941703d2ead63U, 0xbe33c94e3c0a116cU,
  0xbe3b46c33df4f940U, 0x3d7de5993e370c90U, 0xbe0799c1bd0808b0U, 0xbd01700fbd9a7464U,
  0xbd9a5b193d2879a9U, 0xbdd1bae6bd9bfbecU, 0x3df8e900bbdcccd3U, 0x3d9f90a7bb1f8d7fU,
  0x3bd571a53cc92d2cU, 0xbd5f7495bdbfadfaU, 0x3c60ab963d3e9c59U, 0x3c8dfa613d9c508bU,
  0x3d4bf0293d6cbb0bU, 0xbd1d4e14bd71b2fbU, 0xbb8dfd9fbe695043U, 0x3da75ef1be0ffea3U,
  0x3cbb38f43d0c124dU, 0x3d4a77003d82d9a5U, 0xbd0eea2c3da7788fU, 0xbdec2e1d3e0decbdU,
  0xbd80f4e6bde94591U, 0xbd4a37113ce84e89U, 0x3d8a7562bd99a6d7U, 0xbd731e5c3c901e29U,
  0x3d587d74bd939913U, 0xbd4648d23dc344feU, 0x3e019e41bdd14f5dU, 0x3d99b4fcbdc4e0a7U,
  0xbd1249f6bd4b2166U, 0xbd9eb2633ddb8660U, 0xbdcae515bda8b58cU, 0x3c9c4c3f3e35ce0eU,
  0xbdbb1538bcf46d88U, 0x3d51d8353da70effU, 0xbd19ac113c9a3f07U, 0x3d823e74bceda928U,
  0x3e36f6493ddbd6e1U, 0x3cfda32dbdab9884U, 0xbe79dca2bc6b5ee4U, 0x3c36bf963d6562f1U,
  0xbe24b5b3bd065422U, 0x3db70df93d332af9U, 0x3e0b7c5d3dbba409U, 0x3d42d1723e39fb3fU,
  0xbca35fcabca4bcf6U, 0x3c7f0927bc28cec2U, 0x3d882bc03df226bbU, 0xbd82f8ef3d823f61U,
  0x3b1614dcbdba9facU, 0x3d3fee00bb4c1fd1U, 0x3e1bc9f23c774cfcU, 0xbe0f012cbd8df48cU,
  0xbca9b50c3dc622cdU, 0x3df478603db0598aU, 0xbdcde4a8bd965bdaU, 0x3dc57372bd42686dU,
  0x3dcf6d953da8a538U, 0xbdafb6c03dae69f4U, 0xbb60bbedbd10deefU, 0xbe07f6a83cdc8eaaU,
  0x3d2d82b8bd50f2beU, 0xbe20dbd3bd257525U, 0x3d24aed33b9987e8U, 0xbd2561923dcb26ecU,
  0xbdcb6327bb7460a9U, 0x3d456a1b3daf3393U, 0xbdc94ca23d367e18U, 0x3d3cddf13dce0782U,
  0xbd56d3353d50317bU, 0xbc6457a63bfe4353U, 0x3c7d42403e29aea2U, 0xbc8021e0bd5b0ffaU,
  0x3d92c3ce3d81e59eU, 0xbbcb6975be2f3f82U, 0x3e0b91063da1a4b7U, 0xbde9fe55bdbbaa4bU,
  0xbd1d03e1bd778950U, 0xbcc091923bd01e28U, 0x3d200a6abcbe4f67U, 0x3c85f337bd95d6caU,
  0x3bb1088abd9353eeU, 0x3991c638be0a9015U, 0xbd3969fbbd7d4db8U, 0xbcb72c39bddb53d4U,
  0x3dd2abfdbe2ebef0U, 0xbd84de36bcdb5f62U, 0xbd9905013c1c20ebU, 0xbd8badbb3d4766b4U,
  0x3dbabca5bcb54150U, 0xbd5c370cbde69815U, 0x3d8511cd3d23f043U, 0xbd654cc33dbea008U,
  0x3cf8ba95bbec1047U, 0x3de2a9dfbd554841U, 0x3db7f655bd9f2ea6U, 0xbe0f8002bdd33024U,
  0x3c7ecb393d6b19aaU, 0xbd01cea03da8ae1dU, 0x3b1890103dec4275U, 0xbdab39353e2dd0e7U,
  0x3d93bd453de4036bU, 0xbb3b294dbd9f9689U, 0xbcdd13b0bcc1b935U, 0x3e0bdd26bd1f1e72U,
  0x3d705c253d72f9bdU, 0xbd029d08be0aa64aU, 0xbe408f5dbdaa7cd0U, 0x3caf07be3c67ec25U,
  0x3dc5abe13d2e91eaU, 0x3d8119ffbc52e62eU, 0x3d0cc0ef3df29b01U, 0x3c2bd100bcf3ea24U,
  0x3e3b94333dda4a08U, 0x3d15dc283e5f618fU, 0xbde9597e3bd11477U, 0x3da984603dc6d8abU,
  0x3dceb9c8bcc65f37U, 0xbd964d343d099159U, 0x3c996ae3bce677c7U, 0x3d66fb173e0a6297U,
  0x3dc22e33bdacfe74U, 0xbe03f99f3dda3c51U, 0xbd8a63533d9b8d72U, 0x3d4a054b3d36bd31U,
  0xbcec9d70bdda8abdU, 0x3d381d09bd9aa6ddU, 0xbd71809a3e18a5e1U, 0x3d9148cf3dcd7682U,
  0x3dee6effbc9323eaU, 0x3d5969e0bdbf53d9U, 0xbdcec0633d350371U, 0xbda02574bdc1c836U,
  0xbdd9da103da1fec4U, 0xbd60a829bbd82d62U, 0xbe2782babdd05b6aU, 0x3e047257bcf4a873U,
  0xbdf60a48be220769U, 0xbd44bdb1ba5e7250U, 0x3ba91b843be0a84fU, 0x3d60588f3e0718a6U,
  0x3bfe38253dac6354U, 0xbe64cb2dbc587b58U, 0x3dd249eabd024eb7U, 0x3c89228d3d6c8d48U,
  0x3b5316bdbb636892U, 0x3c6aa169bd10820fU, 0xbd48cfa5bd11f4bbU, 0x3dbaed40be18f7a0U,
  0xbd5123823d4cc39aU, 0xbd2049563be0c692U, 0xbd872f9f3ce39128U, 0x3bfa35b53d4a506eU,
  0xbcfd48a93c8fc192U, 0xbe3fd990bdbff8f7U, 0xbd8806843d02afa6U, 0x3c40c932bc23c74dU,
  0xbc6ff04b3d8eda8eU, 0x3e3dc310bd7606bcU, 0xbe33daccbe526b65U, 0xbe1380e4be17eb81U,
  0x3cbf1de03dda0093U, 0xbbbb259fbd281116U, 0xbb39ca803d1b9374U, 0x3cb6136dbd1b98d9U,
  0x3d6ca4503e8cd564U, 0x3dd9cee6bc1ac5bfU, 0x3e40bc323cf67188U, 0xbdd408263df80f75U,
  0xbd6be7a63da220cdU, 0x3d23cebc3d27962bU, 0x3d9850013da01fcbU, 0xbcccfec0bc189713U,
  0x3e301c543e0cb6d6U, 0x3d30bc1cbcbf97adU, 0x3b9e359c3d312371U, 0x3dc9212f3e224a9cU,
  0x3dad1ea13d9c0fe1U, 0x3da9bfc63d7959cdU, 0xbd1ca179bde44881U, 0xbb556246bdc0a5fbU,
  0x3d0c297fbe0745e1U, 0x3d0a0d7fbe1f6bf1U, 0xbddfad30be187ccdU, 0xbc88b6303d599f35U,
  0x3cad1840bdfabe82U, 0x3d977f8bbda984eeU, 0xbe0993db3dcd06c4U, 0x3d004df7bd00fd05U,
  0xbd2158d6bdc4dc22U, 0xbd1018e63e819bcdU, 0xbd62daaa3e057e21U, 0xbd74d9883d3d40a8U,
  0xbd628f1f3dd2a36aU, 0xbcb2fe48bcb12883U, 0xbc6f00963ce71711U, 0xbd91f9353c68a096U,
  0xbda199e8bd6e4fc9U, 0x3c00fd133d0f05a9U, 0xbcb1071bbdb943c7U, 0x3df74621bdbc3458U,
  0x3d497a593d193d8bU, 0x3d22c3323e0cafd3U, 0xbe50b575be55c023U, 0xbc9515f03c14e2dbU,
  0x3d4b826abde90860U, 0xbc50f8573db356ebU, 0x3d9d38473cf7387cU, 0x3d93b202bd1519e7U,
  0xbd5119163cbfc1c7U, 0x3ce4a69abe027b1dU, 0x3c423844bdd4ce75U, 0x3e3c12f8bd46facdU,
  0x3cc15731bd5c993bU, 0x3cbc4f783d010701U, 0xbd2cd78cbcb5e3afU, 0xbc8c569cbde9ec77U,
  0x3dbf04783d865fceU, 0x3d579b22be3f0b66U, 0x3b487ebd3e0d1ec5U, 0xbcf05878bdc6b7c7U,
  0xbd9aae7e3e08d666U, 0x3dcf42d13d37b4dbU, 0x3d25fa52bd995841U, 0xbd1ebef2be47e3f4U,
  0xbd532a913e3d6de5U, 0x3d3c8af1bd3c1320U, 0xbd4416b13dc05d7cU, 0xbd904e77be127079U,
  0x3ce529d9bd37781fU, 0x3d85a4853d208f8dU, 0xbe33849c3d96baf8U, 0x3b63b984bdfb8bc9U,
  0x3de2a548be5cb650U, 0x3dc28c423d4c1caeU, 0xbd2f90bc3d8c578fU, 0xbcdefdef3d291faeU,
  0x3cbf2f9a3e23347eU, 0x3dbf712d3d146cacU, 0xbd877ee7bc815febU, 0xbd5bae77bd186bb1U,
  0x3ca1c8e73e2cabd7U, 0x3dc81d44be389216U, 0x3c67bd823d01791cU, 0xbc71f4bb3d8ffee6U,
  0xbd61e32fbd1d1da6U, 0xbcd78a70be32dc67U, 0xbd42f4f13d81d5fcU, 0x3d8be6693d075aa1U,
  0xbe044dcf3da48327U, 0x3d3d2803bdaf09a1U, 0x3db7a42abd89ff3aU, 0xbdf97f4bbb8d9d38U,
  0xbc00e71d3d4859fcU, 0xbdf5117e3c9a6264U, 0x3d0f35573db3199fU, 0xbe1b8b65bd23925fU,
  0x3d20ac07be045f5aU, 0x3d43e2123e1bf945U, 0x3e29ef5f3d61dd35U, 0x3d3c4ebc3c960bb7U,
  0xbcb025703da84addU, 0x3baf0068bd009decU, 0x3de93ed0be75687cU, 0x3c08623e3c881066U,
  0xbd250579bd79aa97U, 0xbd11103b3d2f4cb4U, 0xbcdfc7303c30d89bU, 0x3d9d9bbebbf4f271U,
  0x3d5848213d961794U, 0x3cf9365a3dd2573cU, 0x3d906bafbbea1399U, 0x3df29e20bd8fe30eU,
  0x3cf2dbf33b288d0cU, 0x3bc9e8633d4eb54bU, 0xbd8af5f3bdd9407fU, 0x3bf2d6773d5fd48fU,
  0xbd6a7025b9a073e7U, 0xbcd859003d2601bfU, 0x3e2875513dcf61edU, 0x3e1839733d9f75d1U,
  0xbd4270c93b09d6e8U, 0x3cb8f6abbd9dfbafU, 0x3dce628b3d8500d3U, 0x3e09f3c93c69c86dU,
  0xbdc4495c3c773e53U, 0xbd0f26af3d45105aU, 0xbe1f03d33cf7bf9cU, 0xbe19e2283def68fbU,
  0xbdcf69343daa3f44U, 0xbd4308f63dbb3552U, 0xbd20e8d73dbc4f80U, 0x3d1f4ce5bd8b00b6U,
  0x3d01dfa93dc99fd5U, 0x3ce3e27fbc94a71eU, 0xbd9063c73e04f9d4U, 0xbc4077ab3bd27a7fU,
  0x3ca395d83d6f800dU, 0xbd9c5f33bcf62c4aU, 0xbe03dab73ddd99c2U, 0x3dc32617bda0cb64U,
  0x3e024a483e12e51dU, 0xbe50e6f43b84917eU, 0xbcc72d3abd5ac5d8U, 0xbcb1cfb23db0e8b3U,
  0xbd43f8943c0952dcU, 0xbe0bb4f73d699a24U, 0xbc8fdd623cbac1a6U, 0x3c9532a9bd589693U,
  0xbce833a8bd1b1816U, 0xbd82812ebd9a8a02U, 0x3d8b855c3e01482eU, 0x3dbfade8be0f4d62U,
  0xbcfd3d5c3c50002fU, 0xbc7bc9ed3da9771eU, 0xbd84040c3d895bd3U, 0xbd7bbdb13cebcd9cU,
  0x3dae1fb4be0b8202U, 0x3dd0d5283c708d4eU, 0xbd2f3017bdee10f1U, 0xbe358222bd3fef0fU,
  0x3bd969e43c6c4b31U, 0xbd3f54d53e19dfdeU, 0x3d636d87bbe13b1aU, 0xbdb0c52cbe48acacU,
  0xbdce4b24be6317ffU, 0xbccec98bbd950039U, 0x3cbf0aef3cc7bbe7U, 0x3d8a858d3daecdc7U,
  0x3d73dfd53c9b3608U, 0x3d9cbfebbd9297fdU, 0xbd6385273d1080dcU, 0x3dc1c4233c95c525U,
  0x3e9789503d10cef0U, 0x3d1b0e293d026007U, 0xbdb2b0a13d8465c4U, 0xbe0c88013e0c3cdeU,
  0xbe09ddbf3d89148bU, 0x3d37098ebc0b9824U, 0xbcfe37503e089b72U, 0x3e553ad83e0ffa2aU,
  0xbc9d61ac3de5d42aU, 0x3caba313bce0bf8cU, 0x3b80f8dabca69c49U, 0x3e0003f43dbaaf74U,
  0x3e86c147bd0e54c4U, 0xbdc7db513dee1724U, 0xbb9c6d17bdea92e3U, 0x3e5907f13c901ebeU,
  0xbc2716493d146e3fU, 0x3cacddc13d2fb360U, 0x3da3fbabbcc87037U, 0xbd3967b63d927e4bU,
  0x3d38379dbdff4a20U, 0x3df5ae6bbe056698U, 0xbdb5a3d0bd83b1d9U, 0x3d3d42b03d97cfbaU,
  0xbcc16e8f3db4b6a9U, 0xbde4dcfc3cb871a1U, 0x3d87cb49bcede988U, 0x3d04bf6dbdacbd8aU,
  0x3dcf44e5bd380bbeU, 0xbe0f0ae3bd9c7aa4U, 0x3d21bb603e3aaf44U, 0x3cd4299e3dd3c37fU,
  0x3e18fb30bd6fb10fU, 0x3b4d21343d35ad17U, 0x3ba4a4ee3db39403U, 0x3dbad5fc3d50a672U,
  0xbcf3b63d3d24b90aU, 0x3e035a06bdafbceaU, 0xbdb4461cbda88597U, 0x3e08f28a3da1cba8U,
  0x3daf310ebd57116fU, 0x3e3e5bd33d6008dcU, 0x3da68ad03c764e7eU, 0xbd3b55ab3e309897U,
  0x3d1a2e67bccc95e6U, 0xbdbc55813dfff636U, 0x3d368a23bdbc926bU, 0x3c1cb808bca697f5U,
  0xbc2ef66a3e082befU, 0xbd19fc68bcb93f06U, 0xbc32ea653def5e86U, 0xbe198d883d06935bU,
  0xbc166cdfba4fc750U, 0xbdfd2e08be3d7f69U, 0xbdf885933dbfbdc3U, 0xbda90b64bbefb53cU,
  0xbd79f81f3d5b5a5bU, 0x3d01c8483e56086eU, 0xbde4178e3d234f3cU, 0xbe7743f83b044e86U,
  0xbd8635c4396cc400U, 0x3a761a6a3c383277U, 0xbdd112e13d7bf777U, 0x3d108e57bd8d8227U,
  0xbd4b3bf3be096de8U, 0xbdc42ba03d802ffeU, 0x3dad17bebdc1520fU, 0x3e12a6cbbe14981fU,
  0x3d161460bc200ee7U, 0x3dd4c3a33c99d8adU, 0xbe04b9523d6cd683U, 0x3db88c373d7d2eb6U,
  0x3d9e44f6bd64242aU, 0xbc488384bd48a760U, 0x3d89c85b3dc74734U, 0xbde573dabce739edU,
  0x3cdbe550bce2d1efU, 0x3e0bba2bbd83ae65U, 0x3dd999dfbd5a2e76U, 0xbd082044be09edd0U,
  0x3da53d993d992cf1U, 0xbd80cb94bdd01dfaU, 0x3db0361bbdab841dU, 0xbd4aadfbbdfe30c7U,
  0xbd26b1a03e1601a9U, 0x3d946d2a3cd97a2fU, 0xbd98fc3c3d7350ceU, 0x3d8d380d3cfa6c60U,
  0x3d0ed4453d68cfeeU, 0x3d651fd9bd2e98f0U, 0x3c77b6d9bdb332ceU, 0xbd801317bdfd01daU,
  0xbd29f8803dad3bf1U, 0x3c78a7db3d3afe12U, 0xbbcbb72abdf2e5a5U, 0x3dbbada7bc8ac1bcU,
  0xbd130b0a3e2da75eU, 0xbd59804f3e064c61U, 0x3cc30d743d95cb75U, 0xbcb928433d4b4050U,
  0x3d6336203da4cdc8U, 0x3cc8c0a7bcf55212U, 0x3cf90dedbcd86093U, 0xbe0b01a13d4e9673U,
  0x3ba1ee93be156592U, 0x3d472cb1bbb9674cU, 0x3deda6903d87d749U, 0x3db1a1203e219745U,
  0x3b9c58db3d882130U, 0xbe5790f2bc08d7e9U, 0x3d2cf3a23be03c0bU, 0xbd45b24b3e088719U,
  0x3c7d7b0a3e6d27afU, 0xbdba9ae33e257c68U, 0xbb7304443d84e374U, 0x3d2c1e8e3d1381c0U,
  0x3ca666eb3ce115daU, 0x3cd00724bc3be183U, 0x3da355223e3af048U, 0xbd10f8a33dd9edafU,
  0xbd37e6de3dc72882U, 0x3d58c5f4bdbdb77aU, 0xbcff3ea0bcfccc10U, 0x3cd35a45bdef2718U,
  0x3d03d9d6bdc4f987U, 0x3e41d2fdbd2318f4U, 0x3d256684bbb69e41U, 0x3d2f44d63cfe2adbU,
  0x3c9d44743d929c9aU, 0xbd9073e73cf2cdc0U, 0xbd24b13abce17a46U, 0x3dc3d84bbd6d2b79U,
  0xbd187e45bdbc744cU, 0xbdfded27bc7efc2dU, 0xbdae1f2b3d9b0a56U, 0x3c8580e03e0227f7U,
  0xbd02e52f3c3f0d09U, 0xbe193c8abdc57a66U, 0x3dafc4563dbd3b88U, 0x3c9263a73d9ba735U,
  0x3c80aa48bd101342U, 0x3da418c93d844947U, 0x3d5fc3e03df48a1aU, 0x3e02c5ccbd8be8dfU,
  0x3d6a2700bcd3e172U, 0xbdebf82d3e1249fdU, 0xbe023f2a3d43aa93U, 0x3e171999be1b85a8U,
  0xbdc0b7193df3f303U, 0xbd1ea4313e34c49bU, 0x3e3a305bbe7b80a9U, 0xbe04269d3de397d0U,
  0xbb43a5693d647b90U, 0xbe14344e3badf9cfU, 0x3cc39c753c835c79U, 0xbdfa3a293e2990fcU,
  0x3d4e16983e13460aU, 0xbda0e253bdbd2c16U, 0x3dda18593d02782bU, 0xbd9e10533e1890d1U,
  0xbe35fd35bde3e133U, 0x3d9c11833e681935U, 0x3baa5a253c7f6e94U, 0x3c393f1fbdcf03adU,
  0x3da0446f3e00536bU, 0x3ca9be863d4071d6U, 0x3e1f11bebd40ee98U, 0x3ce6a9d1bd0bf7d2U,
  0xbd14b7bc3d9020c4U, 0xbd56540fbceaa8e7U, 0xbe322d17bbd12a46U, 0x3db40e35bc95a020U,
  0xbe209cc63df7c31eU, 0x3dfc9d3abbaa19e7U, 0xbdde12363be239c4U, 0x3daa72bebd2b47d6U,
  0x3dbf1dfebbc1343eU, 0xbd8c382fbd83f207U, 0xbe22e9b2be24be2cU, 0x3dcec0c4bd056630U,
  0x3cb1d4093b84cac6U, 0x3e1d09c8bd9b7776U, 0xbb8b22743db9823fU, 0x3d9d7357bcc3a62dU,
  0x3ce66f1cbd02f773U, 0x3b0cb14c3df539cdU, 0xbd42cf8ebd9b269dU, 0x3c5e930d3dbf985fU,
  0xbd92f172bda87bcaU, 0xbc01b315be2b9034U, 0x3d8b60c8be3cf51bU, 0x3cca11efbe0f9c10U,
  0xbd5a09723dccd127U, 0x3d0c0c343b5583aaU, 0xbda51ce7bdc9a057U, 0x3dfd092cbc288dc3U,
  0xbd94c00cbccf34e3U, 0xbe385d523d7fa1baU, 0x3d962146bd377a77U, 0x3c15f734be0282eeU,
  0xbd1de9d63dab5ac5U, 0x3d75f1b6bd285dabU, 0xbdfeac44bb8e95a9U, 0x3e35c83a3d57c3bdU,
  0xbd9d90c73ce52cf8U, 0xbd36633fbd5d8525U, 0x3bb7dc62bcb3d83dU, 0xbd9bcad03d0ae71fU,
  0x3c46150bbdd829b4U, 0xbd2a77ae3e4acf69U, 0xbdd220883cd1d210U, 0xbdc8a5713c45a2b0U,
  0x3bce283ebd89c2ceU, 0x3bbbf63b3cb0b952U, 0xbcbeb826bdaa16deU, 0x3e05063b3d195032U,
  0xbdbbeb443dad78a9U, 0x3c3a05843d2eac59U, 0x3cf4fc1b3d1e0b97U, 0x3d8c01073ca1c230U,
  0x3da79698be3bc696U, 0xbd4897febdc8a72eU, 0x3d49bb99bd9f3ef9U, 0xbdf1d12dbe0a5eb8U,
  0xbe01e82f3dfab54aU, 0xbcb716a33c71af8cU, 0xbd560017bd42a8d6U, 0x3c75914bbd86b1aeU,
  0x3d25a587bddb35c9U, 0xbc587705bd7a4b02U, 0xbde2a2d43de9767eU, 0x3e2d85733ddbc20dU,
  0x3df9395bbd663333U, 0x3cf9be83bd80192cU, 0xbd940d5c3c976a8eU, 0x3db70f1e3dc4c382U,
  0x3d8fc99b3d54f161U, 0x3d6a04e8bd5c1c32U, 0xbdb60f51bde5a30fU, 0xbe064dd3bb24cecbU,
  0x3e2910b43dafc72cU, 0x3db291603c9d26f5U, 0x3e053455be718999U, 0xbc4924b93e4d73d6U,
  0xbe6e3441bcbce177U, 0x3d30a2773e2a06e7U, 0x3d54d14e3c1fecf7U, 0xbe3820853db6d9b1U,
  0x3bb43f7e3e270f66U, 0xbe5953c93ceb5e57U, 0xbe23f0413d06d037U, 0xbd643eda3e22e022U,
  0x3d8cd87e3dd0a2f8U, 0xbd6fc6fabd784542U, 0xbdf391f5bbb5a0f7U, 0x3da651d7bcd84f9bU,
  0xbd29c6b83dde852aU, 0x3beacee9bddcd7bcU, 0xbdac5cf0bd41db5bU, 0x3d9674b8bca24a1dU,
  0xbc285002bd803ebcU, 0xbc0d9d913cd84909U, 0x3c98942abdb89d44U, 0xbdf4e4993dd18abeU,
  0xbde43da33dc20b41U, 0xbd10b9f73d81f679U, 0xbca278e7be067424U, 0x3c9a41e63db3da6eU,
  0x3df4ce923e024c7aU, 0xbd4704f93d815b45U, 0x3d307efabdbc19dcU, 0x3ca276d63d8c82b6U,
  0xbd545ecf3e5d5089U, 0xbd218674bd10f5a2U, 0x3d25b53bbd01ec8eU, 0x3dcbb4b6bd139f70U,
  0xbdf1ce3cbd023b0dU, 0x3e6d7a233e1e04afU, 0xbb479334be4bcc1fU, 0x3e3a137fbd26e6ceU,
  0xbde99343bdbf83bfU, 0xbb4904313d683007U, 0xbd27fcd4bc1f33d2U, 0x3d5a1b0c3b94f42bU,
  0xbcfef5473dad05bdU, 0x3da993f13e3038ccU, 0x3dc4723abda89418U, 0xbd4bbc7d3df24109U,
  0xbdd5b4ee3d50d71dU, 0xbcc73c91bcfdcc5fU, 0xbdcb93e5bc8e6b3bU, 0x3d3bddcb3cacff63U,
  0xbe39c132bdc242a7U, 0x3e4579723d615942U, 0xbb4bc85c3db5b76bU, 0xbbe71ad1bd06a342U,
  0xbe14f9f4bd9b1bfdU, 0x3e0df67e3d6a7305U, 0x3e4885953e3ab1c3U, 0xbdda7675bafb9df5U,
  0x3d169644bd671f3eU, 0x3e0c95b73d5e84d7U, 0x3d948515be009639U, 0x3be68dccbe2522ecU,
  0xbb282400bca8b619U, 0xbc0a3800bc0bdf3eU, 0x3dc5a8d4bcfaa97eU, 0xbd90ab03bd1c89f7U,
  0xbde3a3f0be4cb7e1U, 0x3c8b71dabdd593b3U, 0x3c27ed4ebd020c6aU, 0xbdf4703d3dbdf0a3U,
  0x3d52a6b3bd06f37dU, 0xbd60140abcbf28cdU, 0xbc6d62f1bc81b2fcU, 0x3c182af03df8de33U,
  0x3d02a9cbbe455d1dU, 0x3d19cb733c82882bU, 0xbd878ccc3dc72641U, 0x3d1b19d73d8e804eU,
  0xbe0f6623bd0af39eU, 0x3de7d975bd225380U, 0x3c8cd15e3d1d9bf8U, 0xbd010608be2e3a7eU,
  0xbdd7d233bdc2e1d6U, 0xbdbb855a3d1055aeU, 0xbe13906a3cd62f48U, 0x3d892b41bd8592f1U,
  0xbe12c0e53bb04c86U, 0xbe1b01f9bcc96a84U, 0x3cc8dc5abdab8734U, 0xbd4191183e050774U,
  0x3d56a60ebd94cc09U, 0xbd880a38ba3d5c28U, 0x3d326d62bd358e8eU, 0x3e2dbd5a3d8e53edU,
  0xbcd5779c3dc081ceU, 0x3db6412fbbaa7611U, 0xbc04740ebd67ab91U, 0xbde3bd82bd8c0bc7U,
  0xbd79b7a6bc236171U, 0xbcaf2cbc3cf8ffa7U, 0xbd21d91b3e1408b6U, 0x3d838812b9d457d0U,
  0xbe00db3b3d647573U, 0xbd2d2a0a3df84469U, 0x3c98146bbc7967c2U, 0xbcf0fab5bd322dcdU,
  0xbb4041823e3d26f5U, 0xbdc185903deef5e7U, 0xbdbdbc813cdee3a0U, 0x3d688b84bd49f572U,
  0xbcfadc2cbdb0dfefU, 0xbbdaea583d43a120U, 0xbe71d3d5bc6b966aU, 0xbc5372ad3d29b72fU,
  0xbd3406d9bcdb39a9U, 0xbc94130ebace2a6aU, 0xbc957cc43e1eb4f2U, 0xbd3f59123ddfc3a0U,
  0x3d528531bc7eb74cU, 0x3d39128cbd25df6eU, 0xbde45018bdbe18f3U, 0x3da6de123c3cb3acU,
  0x3da146aebcb8bc1aU, 0xbde1acd5bca64441U, 0xbdb87e7d3d739dc0U, 0x3dd56b013c2389dcU,
  0xbd9893823c5ecc05U, 0xbd7ad6ff3d1be60fU, 0x3cb7be96be021dddU, 0xbc473cce3db2de83U,
  0x3d36aa053d131fb5U, 0x3d4d1c6e3e1305c9U, 0xbbe1894a3d85550dU, 0xbccd82f33e3dc5dfU,
  0xbd6e9795bdeee76eU, 0xbd4f4f763dc44746U, 0xbe0440fabd960ccdU, 0x3b5f22dc3c793531U,
  0x3c6c2e03bde063b7U, 0xbda28bce3dcc2eccU, 0xbc0a3e91bb91665aU, 0x3e0a160e3cbf6e20U,
  0x3d34d0323e005065U, 0x3e38c3693e4887dbU, 0xbe183733be0db7ebU, 0xb9de3e9f3d141111U,
  0x3b8acaa5be06ca69U, 0x3df758b23d93f9cfU, 0x3d8ff1963cb59b90U, 0xbd5a9368be0db1cdU,
  0x3d9270d5bdc85e48U, 0x3c3c8caa3d99e2fbU, 0xbcfcb0e9bdb2bba4U, 0xbd5344ed3bfa2e77U,
  0x3d89bd62bd19c744U, 0xbdc833aebdae533fU, 0x3d130450bc0cd7f6U, 0x3d000ed43d20fac4U,
  0x3d41a2e3be2384e0U, 0x3def56a2bde41f0fU, 0x3d5bd27fbd805aebU, 0x3d524c05bd8b3947U,
  0x3d8d93e5be0c5ba4U, 0x3d66ddad3c157773U, 0x3dbba58ebde86dedU, 0xbd433407bd8098aaU,
  0xbde919303cf406b9U, 0x3d8bf932bdaadc0eU, 0xbe0476c73d01e732U, 0x3daddaaebd609bb6U,
  0xbad167f83e4644d0U, 0xbe03fe64bd95b397U, 0xbc8b5a263d496492U, 0x3c98a8f8bd03ea46U,
  0x3e16c946bbebad8cU, 0xbd3049c73d10953aU, 0x3c32b93c3d730c8aU, 0x3d9d8ca93aa99cbdU,
  0xbe0e99043e1e873dU, 0x3dfc82ed3cfd9a1dU, 0xbe5eca023d22962fU, 0xbd748d333ce7bfdcU,
  0xbd3320ce3c9c7539U, 0xbc18a302bd2d0b6fU, 0xbc9d261c3dd3f211U, 0x3d896ed83c99e98bU,
  0x3ce2e263bdb61332U, 0x3cb2f7ec3df6a02dU, 0x3e395bf3bd10ffd0U, 0x3e121914bcdbad41U,
  0x3d685e7a3dbb85a1U, 0xbdc89d373d63dc9cU, 0x3d0dfc543d3c38dcU, 0xbd881e7cbd801ad0U,
  0x3daf991e3c218c72U, 0x3d28ef2fbddf1890U, 0x3e8369e83d644f2aU, 0xbd88b45c3cf22d4dU,
  0xbc2393febde0319dU, 0xbd4cf2b1bd3ba324U, 0x3ddf310abb92ca24U, 0x3d5fcd39bddbbfb0U,
  0x3d8da5ebbd987d7dU, 0x3d87e9ecbdb613b9U, 0xbe6c3d6cbcea4a44U, 0x3c43f0543c9f7198U,
  0xbd1a231a3db0e31aU, 0x3cb2e65abd96eaa1U, 0xbc8abf98bddae2c5U, 0xbdb861d73dc67c7eU,
  0xbaa0e0cabd8b076dU, 0xbdb56a44bcb6e51eU, 0x3c671505be608a81U, 0xbdb4476c3db12705U,
  0xbd77da053d3197c7U, 0x3e1b5dcebdb8999fU, 0x3c5022dfbd2d301aU, 0x3b0bd12cbdd37f9bU,
  0xbd34f9a6bdacbaecU, 0xbe1377873c8ac8b2U, 0xbdf4824abda4c9adU, 0xbb3ab8d3bd10dd4bU,
  0xbcb896d63e227b7fU, 0xbd64b1063e36795cU, 0xbd8000173d8a6841U, 0x3d700994bd2822cfU,
  0xbe10fdcebe12eb1aU, 0x3d48aa2a3d22d9baU, 0xbdacbe283d867f3aU, 0xbcabe3dd3cf2cbffU,
  0xbe323899bbee09a4U, 0x3e3e0cbfbcf4bb23U, 0x3dccb7953e200253U, 0xbdc50cb43c8d82e2U,
  0xbd49a8103e050ec4U, 0xbd34103abd411bc6U, 0xbcaf228cbdd229a4U, 0xbc3b1c533d215117U,
  0x3dcca161bd9f070bU, 0x3ce8103b3d61de85U, 0xbe529b6ebd8618d7U, 0x3d24bb803e066363U,
  0xbe307ab13d015f9eU, 0x3e4faa313ccaa4d8U, 0x3d959b853d97ad20U, 0xbe0aa18fbcad4077U,
  0x3e1a90be3ce12795U, 0x3cff691a3c7eb85cU, 0x3e2bd007bd21e6cfU, 0x3e1e6521bda39c25U,
  0xbe9117ffbd7877fcU, 0x3d809b66be0c5771U, 0xbe0a928fbd387655U, 0xbd2fbf913d8da5f5U,
  0xbda789a83d9023c6U, 0xbbde5cf1bdde5da1U, 0x3d2c981cbc1c538fU, 0xbc08c8773e43c291U,
  0x3de300c1bce90827U, 0x3d88df183d94cd2dU, 0x3d74dab83c8cd775U, 0x3ddda2b4bda21435U,
  0x3b36ed2cbd78369bU, 0xbce0a2db3d0b610bU, 0x3de5eeda3d822478U, 0x3cd0efa63d9935a4U,
  0xbe6e3496bd735a32U, 0xbde723ca3cf6efd8U, 0xbcd6c7d33c95c2f5U, 0xbd936e123d9add54U,
  0x3c785342bd94d032U, 0xbdf8fd38bd2f9d59U, 0xbdc2d5b1bdba1a8cU, 0x3db5dc2f3d52a9e0U,
  0xbc93a0c13d502ad4U, 0x3e076b87bd3157c6U, 0x3e340da4bd52fb46U, 0x3e4585e23ddcaaf7U,
  0x3dc8ad64be17e336U, 0xbdac87e2bcb9a27bU, 0xbc23fbe73d075186U, 0xbde866d2ba3b09bfU,
  0xbda6a2d63ccda002U, 0x3d0ff7463de94743U, 0xbc1435e33d06530dU, 0x3e1ccc00bd0705c5U,
  0xbd203cce3d7a545eU, 0x3d346a1d3e0e0f39U, 0x39b2bbc13d439841U, 0xbda9dbb2bd18c051U,
  0x3da28b1dbceefae6U, 0xbd37130d3d16ebd8U, 0x3d661229bd8693d1U, 0x3dbc19e0bd108619U,
  0xbbd97efb3d65d872U, 0xbdbfdf0e3d32e8c9U, 0xbd680b0f3d048b42U, 0x3de9d9c43e41a793U,
  0xbd647f48be069561U, 0x3dad8c89U, 0x0U, 0x0U,
  0x0U, 0x0U, 0x0U, 0x0U,
  0x0U, 0x0U, 0x0U, 0x0U,
  0x0U, 0x0U, 0x0U, 0x0U,
  0x0U, 0x0U, 0x0U, 0x0U,
  0x0U, 0x0U, 0x0U, 0x0U,
  0x0U, 0x0U, 0x0U, 0x0U,
  0x0U, 0x0U, 0x0U, 0x0U,
  0x0U, 0x0U, 0x0U, 0x0U,
  0x0U, 0x0U, 0x0U, 0x0U,
  0x0U, 0x0U, 0x0U, 0x0U,
  0x0U, 0x0U, 0x0U, 0x0U,
  0x0U, 0x0U, 0x0U, 0x3c8abe4400000000U,
  0x3b2f3f7d00000000U, 0xbc14aaac3caaf7e6U, 0xbc0141f1bb5e7ae8U, 0xbc1cdf403cb49828U,
  0xbab0864b3ccfc137U, 0x3cc2d71cbbe0a529U, 0x0U, 0x3becbec73cb69996U,
  0x3c57f6093cd8ce84U, 0xbc8ce351bc720896U, 0x3b22068a00000000U, 0x3cb5eb86U,
  0x3cca609200000000U, 0x3f8000003cf9eef1U, 0x3f8000003f800000U, 0x3f8224753f800000U,
  0x3f8058073f800000U, 0x3f7dad433f82a89aU, 0x3f7df4093f7fb168U, 0x3f7d9f4a3f8307fcU,
  0x3f7fb67b3f834435U, 0x3f83168e3f7e22beU, 0x3f8000003f800000U, 0x3f80f9413f82ddaaU,
  0x3f81b1ee3f83779aU, 0x3f7bc5513f7bfdc9U, 0x3f8041853f800000U, 0x3f8000003f82d59aU,
  0x3f8337d33f800000U, 0x3f840663U, 0x0U, 0x3ca0b0b400000000U,
  0x3b8f7bbb00000000U, 0xbc00476e3cc0fc76U, 0xbbc09f2bbbbb4f59U, 0xbc0810243cd8f546U,
  0xbc9763da3cd33050U, 0x3ccd52dcbbb8c4ceU, 0x0U, 0x3c1fb1a53cbe5734U,
  0x3c6e95d13ce090c2U, 0xbc714b47bc5960f7U, 0x3b628dde00000000U, 0x3cc84ddfU,
  0x3cd179a300000000U, 0x3d027da6U, 0x0U, 0x3c8c4be300000000U,
  0x3b39bff900000000U, 0xbc12db943cabbd1dU, 0xbc0112eabb65cf54U, 0xbc1c7e543cb57053U,
  0xbab28b523cd074f2U, 0x3cc2fe6bbbddaf3bU, 0x0U, 0x3beb180d3cb77f94U,
  0x3c5a2e1b3cd99d13U, 0xbc8b2eb2bc720db4U, 0x3b0b3e0000000000U, 0x3cb48665U,
  0x3cc9113e00000000U, 0xbda152d83cfa6163U, 0xbe29beecbdf536e8U, 0xbd5aa1ec3e0e5634U,
  0x3d16d15a3e3e3368U, 0x3c19c23bbdbd496aU, 0xbc3c07403d464f30U, 0xbd63b420be25b071U,
  0xbce75dedbe2d37edU, 0x3bae66373dcacf3aU, 0xbe2092a4bcd273c0U, 0xbd8a3d94bd1d1e08U,
  0x3db66cfb3e09210eU, 0x3da319d33e57e184U, 0x3d3dc816be291948U, 0xbe40a8b8bd7805adU,
  0xbbdb6834be42de90U, 0xbe22f810be02b158U, 0xbc9194803cde2da0U, 0xbdd081ecbced1b60U,
  0xbe241ad7be24d868U, 0x3e65e87e3d488e8dU, 0x3d7e6f383d8aab6eU, 0x3dc8b6d13cfba578U,
  0x3c82cc763e6bc7ecU, 0x3dff1963bd2002b0U, 0xbd348f00be5980a0U, 0x3e3cd9c23e2b5c5dU,
  0x3e27ee88bd76db2cU, 0x3e31f5bd3e30b6eeU, 0x3e353c44bdefdc38U, 0xbe499de03d861c46U,
  0x3e23e479be453b74U, 0x3da932c83d10c2efU, 0xbe04e83c3e779ce0U, 0x3e0c688b3e561380U,
  0xbd1e35f23d814968U, 0xbdfa9bc4be62854fU, 0xbe111d3abb89dcadU, 0xbdc7cf4bbd8a6f3eU,
  0x3e5cab35bcb2372aU, 0xbd5d1d41bd539536U, 0xbe155b9cbe23ad44U, 0x3daf62c63e08152aU,
  0xbc433c2fbde8e0d4U, 0xbd10eaf53e07be86U, 0x3e6e7113bde79400U, 0xbe12a770be424560U,
  0xbdbc8cf4be4e6f64U, 0x3e398f68bd87129bU, 0xbd1f4580be2cd6c0U, 0x3e8b92a43e7f7e04U,
  0x3e92e0c7bce10c40U, 0xbd8dd19c3e6841e5U, 0xbe3e118dbced8cefU, 0xbc15b19dbdfbbba6U,
  0x3d507c06bbd07ea4U, 0xbe1f57e13e3912f1U, 0x3cb3d5e03e09c9f0U, 0x3e951bd43e94892dU,
  0x3d3b6b9dbdfef68eU, 0x3d61f7793e806d9fU, 0xbdc42a9fbc8413a0U, 0xbb6dcf00bd921fedU,
  0x3e4c626cbd09af70U, 0x3dbfc8383de04ab8U, 0x3e55b11cbe2a5ba0U, 0xbe54c22b3cffc1a0U,
  0xbd6784f63df7acc0U, 0x3e1073913d8a797eU, 0x3e2a82b93e702da4U, 0x3e31a40c3c182199U,
  0x3de32960bdf8c577U, 0xbe2fc8a4be70aeb1U, 0x3de3bb703ddda718U, 0x3db4489bbd1a0e6dU,
  0xbc89db643d5985b6U, 0x3e1d21fe3dca51feU, 0xbe194a5a3d8045c0U, 0x3e08bbbc3bd4c91aU,
  0xbe3ca5b7be202340U, 0xbdfa58c83dcb8f1fU, 0xbe695b10be6476f8U, 0xbe43ed41bc686640U,
  0x3dbe4205be5587b8U, 0xbb5c04c53dad25deU, 0xbcc2c160be363041U, 0x3da534393dde86f4U,
  0xbe2deb1b3dd79ce9U, 0xbda17f853dad0e4fU, 0xbc48a8403e54b2bcU, 0xbc2c08aa3e4cfaeeU,
  0x3dc2a4a13e4b4d00U, 0xbe0d589abd2dc7d0U, 0xbc6f291abe041f7cU, 0x3d7ece003e2d6996U,
  0xbdf8a5aebc45e9c0U, 0xbcbb2620bd17fd51U, 0x3c83c680be3a65a8U, 0xbe25ef83bd523560U,
  0xbdf4b5af3e75ecacU, 0xbdac67463c075b8cU, 0x3e4cc2eebd8e370fU, 0x3d33b44ebe4faa3dU,
  0x3d18d2803e00d04dU, 0xbe300e8e3dbea465U, 0xbe561160bc5a0a80U, 0xbc827d34be4f6860U,
  0xbd19690e3e681dcfU, 0x3d3137e3be520126U, 0x3dd8da83be4db350U, 0x3e654148be1fe70cU,
  0xbe4b6b26be2d9c9cU, 0xbe1c85743e0e4681U, 0x3d31fef0be4eeeacU, 0xbde463bf3cc353e0U,
  0xbdea578a3e2cdcd0U, 0xbd920740bd91269aU, 0xbe3a99c43e2157f7U, 0x3e40a1a4bde0bacdU,
  0xbdafe4443e118194U, 0xbd91bba1bd5c3c1bU, 0x3d076b503e06f3fcU, 0xbe232f58bda62ffdU,
  0xbcfd04553de47d0fU, 0xbcffaef0bdae7e9dU, 0x3e34f337bdf3a428U, 0xbd20c8f03e6ae3d4U,
  0xbe2618263e487420U, 0xbd6ec3d03cc7ed2bU, 0x3e413adc3e1673d8U, 0x3e4037873e7d3160U,
  0xbd99cb113e26dc0cU, 0x3e1a7e2e3c2830a8U, 0x3e52a5d8be6628e8U, 0xbe0af2e43e1741a9U,
  0xbdbf298d3d939d50U, 0x3de3dc44be2a1630U, 0x3e2845bc3d9b0410U, 0xbdc0c933be0ec9d8U,
  0x3c3954e43dcaca42U, 0x3e346abd3dd7fcbfU, 0xbe4429883e57e008U, 0x3d4e3dd03e6e4252U,
  0xbe5521413cf092a0U, 0xbce93a20bc90d520U, 0xbd3176603d93e9a0U, 0xbdf6309d3e71d5c4U,
  0x3a94cfe8bdfa5d28U, 0x3e35e53d3d0658b5U, 0xbe5335503e06d990U, 0xbd6fef333d871155U,
  0x3e046bf03e277ba8U, 0xbd94bf75bdb8889aU, 0xbe7871883e015c8cU, 0x3d85de153e1993adU,
  0x3e189bd03cc7ea46U, 0xbc7aac56be4581a8U, 0xbe195c7bbe527564U, 0xbe4f3ba03dcb1ae8U,
  0x3e48d1613dedab90U, 0xbdbee3603e82113fU, 0xbe0c8cacbcc4f800U, 0x3e68e577be428e88U,
  0xbdcd9c4fb96b5000U, 0xbe1e411d3e08944fU, 0x3e4d93a83ddcf8e0U, 0x3e1d565a3e57fb21U,
  0x3dc323203e3ab290U, 0xbe6e1524be123f05U, 0x3dd6cb983db24bb0U, 0x3d9f368a3d4cdf28U,
  0x3d11d72fbd172007U, 0xbd8258483e40e21aU, 0x3b4a144abdb5eff8U, 0x3d50c4d03de3222eU,
  0x3e7036e83e7a2c84U, 0xbd8fc9a0bbde7102U, 0xbe158b443e60d090U, 0x3e68c71ebdbf4b50U,
  0x3d8a5a4b3e5b8564U, 0xbd82bc483e6230aeU, 0x3e5923dcbc85822aU, 0x3c9a971dbe15f729U,
  0x3d8d78ed3c0b9f06U, 0x3e20e63f3c4c398bU, 0xbd2af370be79bdfcU, 0xbdee8fb43e06194cU,
  0x3bd4eadb3e57d75bU, 0xbd9b24593d23118fU, 0xbe0a4c43bddc8330U, 0x3e53a9a0bd574103U,
  0xbd4c8bf3bd2eca70U, 0x3d01a2e03e030049U, 0x3d5b2de0be2b5c14U, 0xbd874e90be31f998U,
  0x3e674ababda57d18U, 0xbe7363583db3d865U, 0x3e454bb0be647828U, 0x3de4c1233e4af647U,
  0x3dc66ac0be373190U, 0x3e15c887bd13b1efU, 0xbded96c8bde1ea48U, 0x3c889720be265ee0U,
  0x3e12568abc61f440U, 0xbd34a2aebc376dccU, 0x3e732c543d2f0000U, 0x3e478e8c3e15a7f5U,
  0x3dfa55a43d71b3e0U, 0xbc75edc0bdf54f57U, 0xbe72f828be6e8b88U, 0x3e09ccb73d6b1410U,
  0x3de2162bbc8092c0U, 0xbe32821d3e67af39U, 0xbe4686ecbd7bc5c0U, 0xbe1522bf3ddcc5f5U,
  0x3ce12760be1f76ffU, 0x3e24f19cbdfae976U, 0xbda8ef48be5b78b4U, 0xbe1a15a83e5aea94U,
  0xbde7c478be423f22U, 0x3e720ceabcb814beU, 0x3e3d185d3e4e4e1cU, 0xbe26338cbe489a20U,
  0xbe58a6ff3e1395b0U, 0xbddfd140bb82fcd0U, 0xbe6692b0be6e9d40U, 0x3e4edb203da2f0f8U,
  0xbc914e01bda32bc0U, 0xbe5d80833e34de44U, 0xbd819a483e5a31a0U, 0xbe039660bcfb59cdU,
  0x3e7f40ae3e2e60f7U, 0x3d91b5e0bce8c9b5U, 0xbe25246cbdb3b758U, 0x3d3c16cb3cb142afU,
  0xbd9a978b3df63f9cU, 0x3e6fb254bd78b30bU, 0x3b48bd1cbe65cc38U, 0xbd2d1b503c7bb96bU,
  0xbe0d6d5f3daf19a0U, 0x3d87cc083d948701U, 0x3ddfdde8bdf995c8U, 0xbe3381d83e409854U,
  0xbd4292b9be3cb334U, 0x3de5db043e8820c3U, 0x3dd83af4be2659baU, 0x3d0a52b23ddb4b37U,
  0xbe04b202bdaf03f8U, 0xbc9ebd34be2a1e9bU, 0xbdcb2f003e1a8cf4U, 0xbe1de828bc225e29U,
  0xbe0c1014be4415a4U, 0x3e0cc9e9bde0e8c7U, 0x3e540cb33e7fd6ecU, 0xbe13a158be1cdbc5U,
  0x3dae451d3cccef60U, 0xbd588e103e10a776U, 0xbe3750d4be2f7ba8U, 0x3bafe3b83e6c68e0U,
  0x3e52e5593e0920c4U, 0xbdc7d4253e37d7e7U, 0x3d962568be7e5d04U, 0xbe7e5edc3e146fe5U,
  0x3d4508f83e6658a8U, 0x3e17959e3d3b0f02U, 0x3d5ea440bdd4e5b8U, 0x3d8e9e87be6a0f66U,
  0x3e04c9a0bbb54293U, 0x3d4f628ebd280436U, 0x3d96e93a3e680080U, 0x3b1cf6003e79bea1U,
  0x3dc86d02bded25d8U, 0xbdb7b348bd546306U, 0xbdf04800bd949488U, 0x3b1b878d3e328bd8U,
  0x3dba9aa93d5557e0U, 0xbdc60b03bcf52e75U, 0x3dc5f0f13cc83d80U, 0x3e21b7edbdc87676U,
  0x3e5163fe3d9b4700U, 0xbdd4b9fb3e1a7c4fU, 0xbdf13ad8be6e947cU, 0xbe579b12bd0531e6U,
  0x3ced300f3d5a71a4U, 0xbdfafb55be090422U, 0xbe5a1246be374f60U, 0x3d1352a0bd8ddc16U,
  0x3d4023973e7d209cU, 0xbdf32390bd26a48eU, 0xbe506158bd89f180U, 0x3bf8dd453d184d30U,
  0x3c6e80c43e19a450U, 0x3d447d8a3e4467e0U, 0x3e1c02e93df28c3bU, 0x3d414bb13dfbb8deU,
  0x3d5685b6bd613d1dU, 0xbe31e549bdab3e0dU, 0x3d7105903dd5cd20U, 0x3d9c13203d74c380U,
  0x3e6f24f13db8f9ceU, 0x3ce9a4fbbe8151aaU, 0x3e07a85f3e2a67acU, 0xbd1561503e723e7aU,
  0xbd17d4a0be5db540U, 0xbe781808be2bd209U, 0xbc59dc003db3d988U, 0x3d72f2df3d1fffd0U,
  0xbe4b2f4abda98378U, 0x3e23d0653e302addU, 0xbe618ff4bdc93abfU, 0x3dc62cba3e33b5d2U,
  0xbe3e04c03e6947c7U, 0x3e9149183e889496U, 0x3ba68c80bd414ae0U, 0x3e4cbf0c3e1b4c09U,
  0x3e93758fbd29ecd0U, 0x3d670bb3bd4fb8b4U, 0x3d95c93cbe3744e8U, 0x3e244eb8bdb5b1d7U,
  0xbd9ccf413d0c4030U, 0x3e673d48bd0d904bU, 0xbe7f35603e169fa4U, 0xbe7a0ff8be61ce68U,
  0xbe415a683e0bca70U, 0x3df5379fbb135e83U, 0x3dac28d03d41e160U, 0x3e222f34bdc02891U,
  0x3e4688f43e2d2a48U, 0xbe5387bfbe6adce9U, 0xbe5277283d7661f0U, 0x3e777b1e3da198a6U,
  0xbe2b7bd4be3af49aU, 0x3dec3658bc9efe57U, 0xbe5bd83c3b609d00U, 0x3d5a1600bdf97914U,
  0xbd43f6ef3e10b7e4U, 0xbe677fd0bdb2ad66U, 0xbe1a60ecbc2c9640U, 0xbe41788c3d609260U,
  0xbc6f5e313c2e83c0U, 0xbb18884f3e10e016U, 0xbd389ec1be7dca47U, 0x3d4ac78b3e30ad9fU,
  0xbe5d713d3e324c05U, 0xbbae62133e89e7b8U, 0x3e42fef4be158ec8U, 0x3dbb0922bbc0d18eU,
  0xbce7d3c5be60f3caU, 0x3ab8001ebe113d85U, 0x3e824e00be120b18U, 0x3e4a83c43dc82e71U,
  0xbe13044c3d9f09c8U, 0xbdd08a00bcbbf8b1U, 0xbd644ea0be5da344U, 0xbe065a4a3e550fdcU,
  0xbde728f6be5bc118U, 0x3dff1e573bc2e49fU, 0x3e7cf82c3dace1caU, 0x3cec262d3e65b424U,
  0xbe1782683e66751dU, 0xbde9cee33d60e2c0U, 0xbe22ebd03da0cee8U, 0x3d36f3c83e044d11U,
  0xbb691b843e4da9c0U, 0xbe5b5df2bc31cedeU, 0xbd81f53f3e066218U, 0xbe16e7983db38db0U,
  0x3e82625c3cc28380U, 0x3df21de03d8bfab5U, 0x3e3d9f9cbb826b00U, 0x3e7172f93ccc2c20U,
  0xbd8b52333dc39fe0U, 0xbdbc44ec3c2ce2c8U, 0xbe3910c4bdd442ddU, 0xbd9dfd403dc6c9b9U,
  0xbe6ef47bbd666889U, 0xbd3866cd3d88f2f4U, 0xbe5658f43e27083cU, 0x3c2751773e45367eU,
  0xbe3020f63d04c2c7U, 0xbd19f3b23e2e8f86U, 0xbdab9fc1bd8a1538U, 0xbbda5d80bdedd83cU,
  0x3e1ab92bbd703c70U, 0x3d9495e03e76c41bU, 0xbc8d43e03e6fb2a4U, 0xbdb8aca5bdd07b68U,
  0x3e637f8c3e2b1d38U, 0xbdf9d721bd6b49f0U, 0x3d81c480be3bbcacU, 0x3e6d82d6be09f9b2U,
  0x3d4a71083da188c6U, 0x3e0ee09b3e049d4bU, 0x3e360200bdf35978U, 0xbe2f5113be505b81U,
  0x3e4dfc903e462b5cU, 0xbe27f11cbe569b14U, 0xbe7bf1a6bce29540U, 0x3de757a0be3f84aaU,
  0x3e5a88433e7ce3b0U, 0xbe6b8924bdcaca35U, 0xbe05b9043dbe10f8U, 0xbdb12e58bd137360U,
  0x3e422aa43e2e46b0U, 0xbdb6175b3db95a9aU, 0xbe46e934be63c49cU, 0x3e059c753e6740efU,
  0x3c07ecc03e30b20bU, 0x3cabbb683e820a41U, 0xbdb246c03d4eb360U, 0x3d01d45ebe41b19dU,
  0xbdda5dbc3de66053U, 0xbe01b2383e623a6fU, 0x3c229b1cbd5fec20U, 0xbd997cc03d9db98dU,
  0x3e18436f3dd5cb28U, 0xbccbe300be0db335U, 0xbd5c00a0bdfe9250U, 0xbdc75a08bd438100U,
  0x3df3b818bce4dcc0U, 0xbe035b443c4c87c0U, 0x3e022d603e30c3f4U, 0xbc87cc80be7893fcU,
  0xbdb45c903dfaea90U, 0x3e788fc8bcecadc0U, 0xbc918a60bdcc8b58U, 0x3e0e95d43df02350U,
  0xbd185fb03e3abaa8U, 0xbe4abdfcbe6310b4U, 0xbd8fd8d83e6a1394U, 0xbcd3a8003e728048U,
  0x3e3374e8be2ba374U, 0x3c604b003e6814e8U, 0x3d5484e03e1e06b4U, 0x3e27c30abe0a28a8U,
  0x3dc47283bdb1ac18U, 0x3e0450443e7975bdU, 0x3c762b153e0a05eeU, 0xbe17463ebc01d90bU,
  0x3dd1fa5e3e00fceeU, 0x3e0e581dbde50a4eU, 0xbda2d5a8bc567e40U, 0xbd568a2f3e1d7556U,
  0x3e18863ebdc9f254U, 0xbd44bdef3d39bf35U, 0x3e1061c6be68a45cU, 0xbde05178be320e76U,
  0xbba4187bbd298c10U, 0x3d726fb0bd1dd7a8U, 0x3e4b54943d30ed70U, 0x3e79ffa93e6ca390U,
  0x3ddbb31d3e3bda4cU, 0x3d0234d9bd86dcfdU, 0xbd1f6840bbc3f080U, 0xbd5964563e49b9aaU,
  0xbd2bf260bd3b7e6aU, 0x3e0ce1313e10be61U, 0xbdf9df98bdaa2f10U, 0x3e647ad83d11ff0eU,
  0x3e5e5639bd8dbae2U, 0xbe1536bcbc6ec562U, 0x3d6039023db16748U, 0xbd9770283e5f40fbU,
  0x3de0f2413dab0bd0U, 0x3e7b04a03d5d8f0dU, 0xbdf7c6103e7a5914U, 0xbc033d6bbe25618cU,
  0x3e172e823e70e880U, 0x3e3b5ec53e199091U, 0xbe218854bce569e0U, 0x3e08ac7fbe4877ebU,
  0xbd270b90bc327573U, 0x3da82f9dbe872b95U, 0x3dac2df83e220444U, 0xbd0d2cccbe044637U,
  0xbdf2f8563c7422d0U, 0x3cb7c3133e35b30eU, 0x3d38e63e3da4d228U, 0xbe083b88be20492aU,
  0xbd84dce03dca5ce0U, 0x3dc989803dceecf8U, 0x3e3676dc3e26ce10U, 0xbc355a303e7bbf34U,
  0x3e26f968be022e14U, 0xbe2e1aa63dbb9fe9U, 0xbe14eff0be254650U, 0xbe35b014be513a0eU,
  0xbda1745b3d689157U, 0x3a6a7a0e3da725b5U, 0xbe56303cbe4888a8U, 0xbe5b0daa3e4bc935U,
  0x3dec9e773e3ccb3aU, 0x3c1c54653e01622aU, 0x3e0b8242bc34c180U, 0x3e223d0c3dbda2a8U,
  0x3e369d0c3e198ed4U, 0x3dec9a483de46c1cU, 0x3e36e0a8be7b5f78U, 0x3e579e8ebe75da20U,
  0xbdb9abbebcc72160U, 0x3dba266f3e58cb89U, 0x3e03eaedbe76aa9cU, 0xbd2830a0bde3faafU,
  0xbe2e4102bd46d4d5U, 0xbc7c9d54be1e74d0U, 0xbd4ea8703e6d3658U, 0xbaa25609bba3c931U,
  0xbc29500fbd0845f9U, 0x3dc61f34bd5d7671U, 0x3dc5f3c6be7954ccU, 0x3e2bf49c3d01b1b7U,
  0xbcaf6bc5bc984620U, 0xbcfd0580bdd9e81aU, 0xbce6a640bcaad380U, 0x3e354399be286bd4U,
  0x3e30c6b8bc0d4a00U, 0xbe025dde3e3d8c26U, 0x3cbeee403d528c30U, 0xbde1d780bd42c7c2U,
  0xbdf37b4f3e2e3984U, 0xbc8e080e3e0b457eU, 0xbe2cf798bc317380U, 0x3e2d24c9be5b3753U,
  0xbe7c5e54bd98cd70U, 0xbd843214be36ad28U, 0x3e2589ccbcf5f4a0U, 0xbe17cd2cbe655329U,
  0xbe77a91d3ac0de00U, 0x3d9e3b48bd2e015aU, 0x3e2345d03d364770U, 0xbe0db1733dbd2d28U,
  0x3b65b949bcf99b80U, 0x3e34cc483c678534U, 0x3d31f41a3e7a1c2bU, 0x3ddec69a3e31d1f4U,
  0x3e7860743e84dcb7U, 0x3e1e71e43da62d9cU, 0xbe6749c03e6d8abcU, 0xbd29c8393e05d9f4U,
  0xbd2eda82be313639U, 0x3d1a204ebe35dea0U, 0x3e10bc343d47dba0U, 0x3da1c188bcb7b867U,
  0xbdf71c8dbc0db9c0U, 0x3da837703e822563U, 0x3d4c6210bd704ae0U, 0x3dbd6b673e4a1f78U,
  0x3e157bf9be29d5bcU, 0x3d5c3570bd100804U, 0xbe1a96d43e1664b5U, 0xbe258ab43cf8615dU,
  0xbe4d579b3d5befa2U, 0xbe3f6ff7bd6cbecaU, 0xbe5137a83e48c1ccU, 0x3e4877093d72516eU,
  0x3e07acfabd3503e6U, 0xbe06591cbc93dd95U, 0x3dbaddc0be4158acU, 0xbe22f0f03d270c63U,
  0xbe2b1995bcffa4c0U, 0xbc1e3040bcd5e6bcU, 0xbe6f36e03e165c10U, 0xbd91fee7be0d81bcU,
  0x3d812f153e5d38f4U, 0x3d7db8b93e8bc046U, 0xbe5fdcf23e6e2162U, 0xbe58ec6c3e938121U,
  0x3e6f1f1b3b261cadU, 0x3dbcef8fbd3b2e6bU, 0xbe50d0403dda4750U, 0xbc2614503dd7eb6cU,
  0xbe0a279b3e8de435U, 0x3d0bc071bd93c25aU, 0x3e8bd39cbd849428U, 0xbdf18d58be2ae286U,
  0x3db239e5bd6e8470U, 0x3dc3cb283e774f4bU, 0xbdbeab183e67cf38U, 0xbd2b858b3d8ce680U,
  0x3d320147be22cad4U, 0xbe5b8c90be783d41U, 0x3e770b96be367728U, 0x3e34a107bd39f4d0U,
  0xbe67d6a0bdd9c14dU, 0x3d83e90cbe127cc3U, 0xbdc7d7403e4473c8U, 0xbe2a61d1bd899440U,
  0xbad67c36bd96739cU, 0xbe06b0ccbe33de9bU, 0xbe0714c3be2f5db0U, 0xbd6f1e60bdf41dd0U,
  0x3df95ea9be483db0U, 0x3e11e300bd8ee67fU, 0x3e6a37c0be4113d0U, 0x3d6afdaebde90928U,
  0x3d9426473df69df8U, 0xbd933d133d9ba6f7U, 0x3e6c6ec53e6ac4ccU, 0xbe04fbf63d873a17U,
  0x3e0cb3af3ce2ef72U, 0x3dc750cfbe170fa5U, 0xbe7f92acbdef8718U, 0x3c8860fe3d913899U,
  0x3d99060f3e42c361U, 0x3bf56503bdf484a5U, 0x3b9ce7c5be7fad48U, 0xbe56aaa03dc89169U,
  0x3c5d8910bd86abf8U, 0xbdbb45f03deb1a0eU, 0x3e3c5d9c3c6ab780U, 0xbe2aff7ebe207d0cU,
  0xbdd654c53e7e8fb8U, 0xbe31e7c9bc817df9U, 0xbce4f7d4bd01115bU, 0x3e431f083e69d6b6U,
  0xbd471cd03e40182fU, 0xbd7bdd8bbd664869U, 0x3cc48b20bc9b2f60U, 0xbe02bb9ebe2dfb67U,
  0xbce987ac3e67b0e1U, 0x3d935f9bbe55b3f7U, 0xbcba4ed13e23375cU, 0xbe4545a83e8f2657U,
  0x3e09e6043df2f358U, 0x3c40ffc03d95d39aU, 0xbc4ec8003e77f484U, 0xbe01cec2bd82ba88U,
  0xbdefa676bd07e440U, 0x3e524abdbe0d1b1cU, 0x3d99f60d3e3b477aU, 0xbcbf3b89be097a9cU,
  0xbe6e83913e0e6aa6U, 0x3e11a1b8bdeca69eU, 0x3e6f634c3e08804cU, 0x3d51efe2be39a5b0U,
  0x3e5a45803d5937cbU, 0x3ddfcea7bc5fd4ecU, 0xbe50c7cabd9445d8U, 0x3e2632003e1741daU,
  0x3e52e3e3be6882e8U, 0x3e334c243b536cbfU, 0x3dc44c40be60c590U, 0xbe218bddbde8b320U,
  0x3e48ff83be639618U, 0xbda09fd2bde315a9U, 0x3ccd25203c8a8c40U, 0x3e2d1790bd9e3970U,
  0x3d6928b13e327332U, 0xbe2644e9be5d697fU, 0x3e3fd510bdcdafc0U, 0x3e217a243e08ccbaU,
  0x3e263b953de55dc3U, 0x3bdce60d3dd9a20fU, 0xbd97d823bd0a8210U, 0xbdd88f98be154cffU,
  0x3d86be113e7bc23cU, 0xbde2e0a0be48c8c3U, 0x3da10e90bcd09140U, 0xbe3a818abcce0b80U,
  0xbe693c0cbe53f224U, 0x3dd0584e3e360064U, 0xbd03da10be7afb30U, 0x3d3c58783e04540dU,
  0x3e0dfe50bdeaed0bU, 0xbe41cb4ebe246499U, 0x3e2066143e1ff034U, 0xbd8b65fcbe516510U,
  0x3bf05f183e5375e9U, 0xbc9f93c63c2f1de1U, 0xbc2f0382be2d05acU, 0x3e44779cbd263a73U,
  0xbe0a26abbceb9e20U, 0xbd8c32203cdf45b8U, 0xbd8c65c8bda55ec8U, 0x3e1e0c423dc5eb88U,
  0x3dfaf1383e3b7abcU, 0xbc2b9996be2adf30U, 0xbd0e5820bd0ddaa0U, 0x3e7b3c123e5060c0U,
  0xbe1486a8be40edaaU, 0x3e531265bd925d5eU, 0x3e6b9eb03dce52f0U, 0x3c326ae33e0748a0U,
  0xbd04076dbdc3bde1U, 0xbe67c0263e71f399U, 0xbdc0e3a43e785198U, 0x3cf7e500bcc3af05U,
  0xbe5e2343be7b53f4U, 0xbe2a2258bd6954daU, 0xbe3c8c50be697054U, 0x3df36511bd5b0b10U,
  0xbe094e083d32a280U, 0x3de026df3e0e6143U, 0xbe2f43e13d5f4f7dU, 0x3de56a72be2f5800U,
  0x3e38768e3e72cab2U, 0xbe4ee4113e4af668U, 0xbe23f15c3e3e8a84U, 0xbe5d11f03e589997U,
  0x3cf562343e862776U, 0xbdbf736f3ddad554U, 0x3dc9c6253db4d928U, 0xbd7490603e8a9650U,
  0x3e8693f6bc9b0620U, 0xbe0a4be8bdb60735U, 0xbd747f20be5afc90U, 0xbc3ded56bc8a82a0U,
  0xbd3fe0c4be3ef138U, 0xbe84a534be60ad9cU, 0x3cbcd780be08ac80U, 0xbdb708623dac2b63U,
  0xbd6c9ee0bcb5234cU, 0xbe37380ebe01406bU, 0xbdd68860be32cc8cU, 0x3e17b6463dedc3c2U,
  0xbe04315d3e1f40f8U, 0x3e2ecccfbe259630U, 0x3d8265abbca69700U, 0x3e393b483e39d170U,
  0xbe305808bc527000U, 0x3de30c583e2b5d6fU, 0x3e7873e0bd999cb8U, 0xbdfe9c9f3e69660cU,
  0xbb8a6209bdd42950U, 0x3dcbc1fcbdd7f7e8U, 0xbbae4500be1df2d8U, 0xbd948361be0c5c04U,
  0x3d951fe8be016903U, 0x3d938c3ebd10eb03U, 0xbe7d04183e220be4U, 0xbde1396cbe637d89U,
  0xbe1508913e685590U, 0xbc5b9267be53709dU, 0x3e53411ebe69edb8U, 0x3da671603d154934U,
  0xbe49bedbbe7966c4U, 0xbd451b40be01bf0fU, 0x3cd5cdc0bd182af0U, 0xbe3b4993be284b48U,
  0x3e6e81b6bc6bcf80U, 0x3e167500bd8866dbU, 0x3e35f3f83e628d98U, 0x3d64b8803e60c9a8U,
  0x3e544bffbdaaeaf9U, 0xbd94bf763e3abbcaU, 0xbe2048e43dbce848U, 0xbe62d797be496883U,
  0xbd167909be4035b8U, 0x3db0a0623cdf764cU, 0x3e455a653e1dcc90U, 0xbd19fcc0bdeaf15dU,
  0x3dede48cbdb401f8U, 0xbc5e65003e0d16b0U, 0x3e10283cbdaa7918U, 0x3d0aa0cb3df66418U,
  0x3d9f111c3e430a14U, 0x3caeb913bc8ec41eU, 0x3d2eb1f33e30bb9eU, 0x3e45d7183ddecd41U,
  0x3b0cfb563d8d85dcU, 0x3e82f02fbe11a988U, 0xbe410b483db14878U, 0x3e59478bbe115ed1U,
  0x3de562453e09c264U, 0x3e1ee7763e2b1a5eU, 0xbe4e032ebdf44998U, 0x3e75472c3e224b75U,
  0x3e80de6dbce609c0U, 0x3dad4588bbb37735U, 0x3cd88600bdda37d0U, 0x3e542922be168ac4U,
  0xbde8f9fc3e618c8cU, 0x3daf12e2be482f20U, 0xbd914cf0be7c5f8cU, 0x3e47b3a0be6bf429U,
  0x3e1141b2bd59bfaaU, 0xbb7dccaa3d7d591fU, 0x3e5093d8bdfc9b38U, 0x3e54f736bcc6883cU,
  0x3d3addf3bdb2318aU, 0x3e22a1443e3ec7a6U, 0xbe7573b3ba828600U, 0x3e71475c3d0e6cccU,
  0xbe5d7c303da6ce18U, 0x3c0256c03e555cb8U, 0x3e2d01b83e43c890U, 0x3e4305b13e299398U,
  0xbd4e7ec93e2ab728U, 0xbe6113343be981f7U, 0x3e6ac7fa3e627b9dU, 0x3e4d559f3d1fa929U,
  0x3d9aea883e3ffc16U, 0x3e5e40763dc5ef38U, 0xbe206ca8be3c242cU, 0x3e7f79093c45924aU,
  0xbe36c40bbdbe2d60U, 0xbd5aebe0bde0d2c3U, 0x3ddc17db3e5a2b18U, 0xbda172a8bd643dd1U,
  0xbe375874bd0d2aa0U, 0xbdf39de0bc127906U, 0x3d6f46a03b472e00U, 0xbcb1f0df3dede080U,
  0xbe78b876bc9ca200U, 0x3e69785abdb15d18U, 0x3e23b059be7ba245U, 0x3e5cf84fbe3ccee8U,
  0xbe6d29ff3dd43849U, 0xbcb81b883e619c7eU, 0x3d6953903d4fe310U, 0xbe6cfcd3be00276cU,
  0xbe745cea3e1bf096U, 0x3d3d62a23dcdda17U, 0xbddca12ebe204bb8U, 0xbda84d60be1b0807U,
  0xbd01b8f63c50d200U, 0xbde039f83e467274U, 0x3dafc1a03e37f2c0U, 0xbcef4ef3be532a74U,
  0xbdb808c3bd140d00U, 0xbe187dd23c74ce9cU, 0x3de859ce3dce0facU, 0x3d379b27be1ef8e7U,
  0x3c96cfe63e9a3725U, 0xbe229d533e59cfe8U, 0xbd3fd580be56dfccU, 0x3e5a83943dd67a32U,
  0x3e147b263e438f76U, 0x3d7c33fc3e1c4a41U, 0x3de745083e33a050U, 0xbd1a98203c820636U,
  0x3e32dd3d3e3f114cU, 0xbd95eda83e38efa4U, 0xbcf376603e5a6cc0U, 0xbddab7b23e46dc44U,
  0x3e30a867be0104b8U, 0x3e0ae44cbd57d503U, 0xbe1c3359bdd7e960U, 0xbe26a107bd18e5abU,
  0x3c8e45403e1c85fcU, 0xbd83f922bdc9a5c8U, 0xbdb87490bc7b6100U, 0x3e1ab8623dd91f9cU,
  0x3e42015cbd1b3309U, 0x3e76492c3d9efb45U, 0xbda28e013d7e3f00U, 0xbe5a8bd43e0490b1U,
  0x3e8073f4be10b7ccU, 0xbdec68c8be70fcf1U, 0xbe788a88be35ddc4U, 0xbe20516abbd21180U,
  0xbddca9863e6ed160U, 0xbbcd4e403d80b233U, 0x3b2595d1bcfb8568U, 0xbdd18a88bcd4db3bU,
  0x3e31c833bd7208c1U, 0xbe674ce5be0d4e9bU, 0xba488400bc9a9ae0U, 0xbcd66717be12f975U,
  0x3de3d06dbe5dd91fU, 0x3dfa4ee93e87c84cU, 0x3dde729d3e7cc4a4U, 0x3c3573403e86956aU,
  0xbdcc4b7abdb88ee0U, 0xbe3027d43e211afdU, 0x3e4a7384bd8ae710U, 0x3e2095a1bbb4c180U,
  0x3dd37e13bdff8598U, 0x3e8058533e9467bcU, 0x3ddc5006bd3c0be7U, 0xbd1257c33e214da3U,
  0x3e3c0f543e656843U, 0x3dc5532abe179cc3U, 0x3e72adc0be75357cU, 0xbbc7f1e6be533501U,
  0xbe1071913e68e818U, 0xbe1d46cd3bb02df6U, 0x3e63bac8bddfc6f0U, 0xbe62b41c3dad7ff0U,
  0xbe381259bd4a1e60U, 0x3def21403e0ed621U, 0xbe33d5203e46929cU, 0xbc9a350cbe726398U,
  0xbda9b30c3e7d7078U, 0x3d9e228c3e8bca7bU, 0xbe044a64be62632cU, 0x3e7311ae3e714cb3U,
  0x3d837d583c072614U, 0xbb88f6953b3f3590U, 0x3e6de9703e307d30U, 0x3dc3ef24bca30838U,
  0x3c9d686dbde7dc80U, 0x3ddb58463d1ff3b7U, 0xbe111e8fbe4e2ac8U, 0x3aa79c00be0eb312U,
  0x3d269441bc386640U, 0x3e48d3c03e926f11U, 0xbdeb93203ab5cc00U, 0xbe1dc1f7bbc01100U,
  0x3dcbf093be6c0938U, 0xbd5240e53c1fc542U, 0x3e731e64bd0513c0U, 0x3e34911d3dd53af7U,
  0xbe30af7cbdcfaf24U, 0x3e4c186cbe34a611U, 0xbcb439003e5ca16cU, 0xbe38a460be48a0edU,
  0x3e32429f3b11c099U, 0x3d223cdf3e15d30dU, 0xbe0c084dbe1cd100U, 0xbd60a3003e2a3e39U,
  0x3dcb14903dcef0b0U, 0x3d65dfc0be15e5ecU, 0x3cd8bee03ce87ca0U, 0x3d87fe6e3e670f0cU,
  0xbe2b72ecbdffd4e0U, 0x3e7e13f6bdcceaa8U, 0x3db1bf78bd5e0f30U, 0xbe507758bdb2294fU,
  0x3e1a4164be0967fbU, 0x3db374df3d2db246U, 0x3e51638c3dffdac8U, 0x3e262022bd9aed62U,
  0x3d7d5ce2be6f2e15U, 0xbe3f69003df3b939U, 0x3e1ad7a93d349740U, 0x3e31ddc43e81d531U,
  0xbe2c380dbd6c3280U, 0xbe22aa2c3df05411U, 0x3dd3bc803d996088U, 0x3e434d623e0f16c4U,
  0x3e575fbcbe733cc0U, 0xbe0285f33e6b6660U, 0x3e36e5283d6e4150U, 0x3cdc60033d80fd7eU,
  0x3e4535603e2c49f8U, 0x3de4f1ec3e09e202U, 0xbe121460be3f2d94U, 0x3d8a36943db873c8U,
  0x3e0989e8bdbd8a18U, 0x3e697fe8bd9bc438U, 0x3d6aa58dbd55bea0U, 0x3e59a638bc633bafU,
  0xbe1bd233bdcab6a0U, 0xbd0791103e1b62cfU, 0xbd66a9703e08e61cU, 0xbe5c116a3e48e170U,
  0x3e47f86cbe3f0b4cU, 0xbe25a8073e745fdaU, 0x3e659a993db9c281U, 0xbca9572c3e6d2b52U,
  0xbdd5fae53c7eb4ecU, 0xbdf7f9f13e284c05U, 0x3d89d2103e195eccU, 0xbcc54b22be3ef842U,
  0x3b4efdb7bd6983a4U, 0xbe37770fbe0c9703U, 0xbe5fcc563e7342d0U, 0x3e6bae603e5932eaU,
  0xbe2ae9f2be50886cU, 0xbdd8adb8bd59aa74U, 0x3d7b84f03db71958U, 0x3e2063643c20c200U,
  0xbe1d9ec9bd73ae60U, 0x3e3dd9bc3d8fd9bdU, 0xbe581ef4bdee1c60U, 0x3d43ee28be0c05e1U,
  0x3cb04f203e4c0684U, 0x3e0a55e83e1d64b1U, 0x3cb2cc803dcb9a50U, 0xbe781f66bc962466U,
  0x3e15dc32be408de5U, 0xbe2bae0cbe7f0b6bU, 0x3e3daf0fbe41a808U, 0x3b351a00be749df5U,
  0xbe1ed1a93c897d20U, 0x3e6d639cbe627b06U, 0x3e1b81a43e6e109cU, 0xbdd670febe330920U,
  0x3cc4aff4bc2acf40U, 0x3c4996903e57e5b5U, 0xbbf0e580bca65040U, 0x3dfa2021bbd2cec8U,
  0xbd6aebd03c050833U, 0x3e0262203e2cb603U, 0xbe129728be459ca4U, 0xbe1039703e48f9abU,
  0xbe7761c73e1eebb9U, 0xbe79f4143e5b11baU, 0x3e698b69bcebb4c0U, 0xbe146f30bd167311U,
  0x3e524ddd3dec8408U, 0x3def1ad8be2f1e1aU, 0x3dda8d98be6c8258U, 0xbe61392f3e41d73cU,
  0xbdc7804e3e7f5b80U, 0x3e5a41bfbe804860U, 0x3e60d590bdaef158U, 0xbd5c76203e32e579U,
  0xbe162165bdd3c1ddU, 0x3d2ce8193e158b6fU, 0xbe1278443d9ee238U, 0xbcd65dd43e0974a9U,
  0xbe26fdf1be3ff1f5U, 0x3e5bffc3bd7ae349U, 0x3e6124dc3dfdf148U, 0x3e0663fc3e45d72aU,
  0xbe489bbabe274e7cU, 0x3e16bb88bddabff8U, 0xbe6c678cbe47e4ecU, 0x3e387c79be0e18a8U,
  0x3e773521bdff7c30U, 0x3e715bb23d8e393eU, 0xbe2d120abe4db893U, 0x3df6e64cbc4b434dU,
  0xbcaf4b03be5860cfU, 0xbe3ae607be4e9636U, 0x3de46bf8bd962f60U, 0xbe04e3c83e5f67b3U,
  0x3c87aeb43e338d06U, 0xbe0191533e8579feU, 0x3e5447f43d4e6f60U, 0x3e368c683e63601cU,
  0xbca89aaebe394b3cU, 0x3db45690be3ed2ffU, 0x3e06c85fbc1c592eU, 0xbe0d526bbda46ff2U,
  0xbe821e6fbb95b0e7U, 0xbe3b8bc43cac8ff7U, 0x3e39ad583dc22f14U, 0x3e6e49623e409a76U,
  0xbdff1f7b3e3aa83fU, 0x3dcda85a3d9fd006U, 0xbd6d83273d1d5a24U, 0xbcc0ce85bb27e1b2U,
  0xbd834067bd429bdaU, 0xbc24fa323d8e501fU, 0x3d9b74553e65bda8U, 0x3c488c6e3e30d0b5U,
  0xbce93bafbe0d8230U, 0xbda789363e52741fU, 0xbe21ee823d89e8ecU, 0xbd4a8757bd6ee470U,
  0xbde8eb60bdd403b5U, 0xbd179d90be054e13U, 0x3db43401bdaaa5f9U, 0x3c73a6d53e38a057U,
  0x3c4a1d4abdf4a6acU, 0x3e831456bea25c58U, 0x3d467d793c0db792U, 0x3e4e2faa3e1a6050U,
  0x3eb19a223cf1e81cU, 0xbd9d742d3e86fff1U, 0x3d40eaa23b0efadbU, 0x3c93d19cbdeb5e97U,
  0xbbf07bb2bdb3c0d7U, 0xbdaf8e663dc5fcefU, 0xbd8d856cbdcf61c9U, 0xbda63c24bbca3afdU,
  0xbd23075c3d949228U, 0xbd3c76da3b2a639aU, 0xbddf8e963d2be166U, 0xbdd20f593d34e96eU,
  0xbcde5b3e3d913958U, 0xbccfd8e7bdfdbd7cU, 0x3c051bc33e1e173aU, 0x3d0977183de68b2fU,
  0xbdb50506bd95af84U, 0xbc4326a8be4078a3U, 0x3e15eebe3d81b7f7U, 0x3d24294cbdb2a37bU,
  0x3cf2e965bd93468fU, 0xbda641e23d4647b3U, 0xbe2fc0833d2ad451U, 0x3e19d3783cab2130U,
  0xbd0161bf3df3e82aU, 0x3e5dba643d751683U, 0x3e7fad81bd0d6cb9U, 0x3cb49d5dbd004660U,
  0xbe390ff93c1c0296U, 0xbe23f5f8bdaef6afU, 0x3df49aac3d45fafcU, 0xbdeb91fc3e50ab38U,
  0x3d0dcd4e3cc0e44aU, 0x3bd5872a3db39d17U, 0x3e35c33c3e07e7b7U, 0x3e14583f3e1048a6U,
  0xbd5bfc90be7638bbU, 0xbe3833753e808269U, 0x3d98dd743ddbc17eU, 0x3e892e183d9fd1ffU,
  0xbe0e60b1bdf24ef8U, 0x3e57e2acbd88d497U, 0xbcd7c8263d16b018U, 0x3dcb5fd7be009072U,
  0xbc53e2853d1eac84U, 0x3dbe0c643da8efc4U, 0x3d254715bd3a6894U, 0xbdadf0babcb43db0U,
  0xbe734c273dbfb964U, 0x3c4e0b893dc38c29U, 0x3e1f32b33cfce6dbU, 0x3e0f8d5abd8372d7U,
  0x3ea8c2083e030d59U, 0x3d372e5fbe33a59bU, 0xbcc118343d383459U, 0xbd2d9b42bc0d5716U,
  0xbda1bc8437114030U, 0xbca32550bd82fa68U, 0xbdc48178be7baa3aU, 0x3e0335a63d038e50U,
  0xbd64cbe83d406c2bU, 0x3e2cd2533c18077eU, 0xbd0dcf773b745b51U, 0x3d3b779b3e3e2bb4U,
  0xbe576f3abe0a6dd2U, 0xbda115723e0c993fU, 0x3cff0e8e3d83252aU, 0xbe4d5e26bd43e1e7U,
  0xbe2d2b533e9540bfU, 0xbcedbdf23e83ad3dU, 0x3d4fa72cbe1ebff4U, 0xbe08f1e4bcfb5fc6U,
  0x3db1bf07bd9d7110U, 0xbd2b6ea33ba9b343U, 0x3dfb7c463e301dd7U, 0x3dbc6fab3cf006f7U,
  0xbe3431b03dad3913U, 0xbd60396b3d4d9f97U, 0x3dbaf428be3bcffaU, 0xbc376e9d3ddffa3bU,
  0x3ca41163bd90b4f1U, 0xbe853ea33c7e3fa1U, 0xbe707cc3bdadde27U, 0x3b0396b03e5b9acfU,
  0xbe31422dbe1786ccU, 0xbde3f1363b2965a7U, 0xbd361451bd4d0653U, 0x3c3c96303d216636U,
  0x3da90fea3e331e81U, 0xbe2025fa3e0e1ebeU, 0xbe26223c3d9200aaU, 0xbba31724be40d6c1U,
  0xbd8df926be48a334U, 0xbbfc8aa73d1796a8U, 0xbe6def85bcefb8b9U, 0x3e143987be6c5743U,
  0x3d2c740bbe72d13bU, 0xbc83fa86bd93042dU, 0xbc5293e4be20f9c7U, 0x3eb025cebd364921U,
  0xbdf82d013d8af545U, 0x3dcb12ed3e242791U, 0x3d43a08fbe8428c6U, 0x3d4dd31a3e2c0431U,
  0xbcde2c3c3c9a9781U, 0x3df87f94bd1e75cdU, 0x3d802450bd48e005U, 0x3d727749be2f2ebcU,
  0xbe1b10083e788b6bU, 0x3e25d25a3dc43b5aU, 0xbd0efa82bbcc4234U, 0xbc504a1bbe51c84cU,
  0xbdbe1c3a3ddbb170U, 0x3c86eace3a757b6dU, 0xbe1d34673ea7109aU, 0xbe68701cbd08593cU,
  0xbd423fc23e04a8faU, 0x3e3e547cbe056514U, 0xbdafaabbbe9a5760U, 0x3c8e53e7bc38f69bU,
  0xbd89ca8dbd1ab078U, 0x3e2046bcbe17feaaU, 0x3ddde34fbc02a4c5U, 0x3ded28373d232f07U,
  0x3d9cea55bd548268U, 0x3e4d51c1be667577U, 0xbd1ac1423d99ef19U, 0x3e31ec45bda745a6U,
  0x3e9765783cf170c1U, 0xbde4f62fbd4262cbU, 0x3e91d7c33dd03140U, 0xbd238fad3e2b237aU,
  0x3e1c2d47bd223d4dU, 0xbbf1b0583e1813f0U, 0x3d8fde12bdbbdd61U, 0xbd415266be0a1ca0U,
  0xbd8f7adcbd00c0d3U, 0xbd3e31553dea45d3U, 0x3e093e98bd96cff2U, 0xbe1d7d9cbde3c7d5U,
  0x3e622977bbf252eeU, 0xbc7c10963e8e0a2bU, 0x3e0681de3bca3223U, 0xbec3237d3dda9488U,
  0x3e160506be2dabc5U, 0xbd7599a7bdb03e77U, 0x3da43f3ebc2b1e1fU, 0x3d201c523b915c2aU,
  0x3e17420c3dc346e0U, 0xbd6adcbbbbdbe866U, 0x3d9156e7bd6bea55U, 0x3d7175693e9c1c95U,
  0x3b837f7dbd7e861dU, 0x3e0734e03e7cf377U, 0x3e0172acbda9c084U, 0xbd5ae4c93d85b3c8U,
  0x3cf31a963d10d24eU, 0xbe8184e03c42db48U, 0x3d40daacbe217a15U, 0x3df31f2d3e349168U,
  0xbd1bdaef3e9cc06eU, 0xbd13498439ee755bU, 0xbe302c5c3d8de430U, 0x3e1fdc56bad2022cU,
  0x3e583d663bf0e98cU, 0xbd2253db3e1ddecdU, 0x3e8bfeb9bc6c5daaU, 0x3e40ec9d3db67353U,
  0xbc6b5ada3d3ba8c4U, 0x3cf59941be3a3590U, 0x3d138d48bd604f3fU, 0xbde81ac5bd8ab01cU,
  0xbd955597bd58f703U, 0x3e171fa1bd93b81fU, 0xbe8af3543e074fdfU, 0x3d0cb5ea3dc04fc0U,
  0xbc813e91bdf009acU, 0x3d60797a3de396d3U, 0xbe2f0b7b3e897f14U, 0xbd8ba560be07b0a3U,
  0xbd0bc492be29a636U, 0xbd8db378bd9cb74dU, 0xbe0e608c3e55b608U, 0xbe7486643e93d6a2U,
  0x3d0941bb3b20c334U, 0xbdabcabf3dfaf6c9U, 0x3ac4cb283d3ab032U, 0xbd9a960c3b399424U,
  0xbd9488fe3d8c111aU, 0x3c822b893d91fc38U, 0x3ce7cb18bc1921ccU, 0xbe0f6e36bdd05f17U,
  0x3ce926313e521b09U, 0x3dbfcd4a3d010bc3U, 0x3e2c83cb3cbe683bU, 0xbe28fae23e511e76U,
  0xbd38deb4be8e49a4U, 0x3dc11a8bbc8c1fb8U, 0xbd530fc33e0b4b46U, 0x3e6ba5963dc68d6cU,
  0x3e00365ebc1015ccU, 0xbe7277bcbd9fc052U, 0xbdf592823dd52200U, 0x3d44e47a3e719b94U,
  0x3da816f23daaa285U, 0x3e0f37aabdc85608U, 0xbe40d2293d3c9560U, 0xbe5fe87a3d9cdd93U,
  0x3e0438323e05d9a2U, 0x3cad85cfbe7d94d6U, 0x3ceeff1ebd20aa8dU, 0x3d90dcd03de84001U,
  0x3df6b1163ddd7ab5U, 0xbbef87713cdea696U, 0xbd9f697d3e70ac65U, 0xbda2afe5bd4b254cU,
  0x3e01814e3de7f656U, 0x3d2bf5833e41282fU, 0xbe2a629bbdda3658U, 0x3d58d092bdb06fb8U,
  0x3dfa40b33e4e84d0U, 0x3e09f6cb3d0c385eU, 0x3dfda5203e4f6387U, 0xbdd7a38abc8a1d9eU,
  0x3db3d3063c04b554U, 0x3de50ec5bd55e88bU, 0xbdc0b6e5bcc4b2bcU, 0xbcd0743fbdaf80acU,
  0xbd1826f0be0daaa9U, 0x3e97af7d3dd6ab51U, 0x3e20b7243e614dcbU, 0xbbdf06c0bde37284U,
  0xbd54ff773e90c44eU, 0x3e208a963d8f1700U, 0x3c642a8cbd02c092U, 0x3d06bd26bd26c367U,
  0x3d4e394cbd4634e5U, 0xbe2075b63d2835f8U, 0xbdc85942be1a508aU, 0x3d5820473db5e2d8U,
  0x3e7a7eeb3e367a63U, 0x3d0243b6bda25b93U, 0x3d85a4843d832d79U, 0xbb91631cbd371c13U,
  0x3e0bafbb3e869216U, 0xbdd90bc43d70e92dU, 0xbe576196bd9afea2U, 0x3d5afff6bd8c0b3bU,
  0xbdf89c193d3f1860U, 0xbd07f1e5bdcc20f8U, 0xbe605f703d18122aU, 0x3ddda28d3db03fb9U,
  0x3e1c3f4eba3a8fa0U, 0xbcb7200f3e712ef4U, 0x3e9bcdda3da63310U, 0x3c67f847be2a3b6fU,
  0x3da63fa7baced2d0U, 0x3d3d7d7d3e1193d3U, 0xbe17396bbdfdecd9U, 0xbd9174143e4cfab0U,
  0x3d14d1923e8b4868U, 0x3de27e593de51776U, 0xbd82c5993c83fc42U, 0xbd6b4180bdff19abU,
  0x3d95f7703e5fd7c2U, 0x3e53bbc73d0f9adaU, 0x3c2e0fbb3d74e0b4U, 0x3e24e73c3da0eac7U,
  0xbdadc1583d891bbbU, 0x3d29e7203d693b23U, 0x3e5591d33e1c50beU, 0xbb91c1283cf3d7c4U,
  0x3cbdd0963e0fd881U, 0xbd6462d3bc4fa0a1U, 0xbcfbf5df3c3f5e63U, 0xbe0b5b9e3dac6360U,
  0x3d928d723df0151fU, 0x3e199ccb3da563c1U, 0x3e09d15dbe330929U, 0xbe2e934f3e0c6343U,
  0xbbe1c16e3d937b7cU, 0x3e3b7e5d3d46bd47U, 0xbe12b4913db17c1aU, 0xbd67b8733e203f3cU,
  0x3e0f03ca3c907ad1U, 0x3dd3e76cbda18b2dU, 0xbe848f693cb05614U, 0xbdf264d23e995ceaU,
  0xbd5a3b413e1386e8U, 0xbe4ab2ca3dad4883U, 0x3d159e1cbe89afb8U, 0xbe1d4b653d4bbde5U,
  0xbc2bf22dbdd800ceU, 0xbd03e3e13c5711c9U, 0xbd5a6c33be3e4520U, 0xbd47ba6abdd55118U,
  0x3e177de6bc106b32U, 0xbdda4b13bbcec376U, 0x3d8e3f66bc1111cbU, 0xbdc238e5bb03c94bU,
  0x3d1ebcbfbd3b58f3U, 0x3e1e2de0bc6c5554U, 0xbca9f62cbaf918f1U, 0x3e4b932d3dea35a8U,
  0xbdcda924bd825f65U, 0x3d3783333dfd5be8U, 0xbe5243bc3cc8f0baU, 0x3e18fc373dde58ffU,
  0xbd577d183c9b96f9U, 0x3db9bbd23c10ebe5U, 0xbdcb038ebddcc14cU, 0x3dbb2c42bda479fbU,
  0x3d28ea0dbc9e53edU, 0xbe252afc3d446499U, 0xbd9492edbdb00c8fU, 0x3e0f6d8bbde514bbU,
  0x3e742931bd49166cU, 0x3d0b0fcb3b2da88dU, 0x3e073c203e4088feU, 0x3e582e633dfef58fU,
  0xbdaf22363df0964fU, 0xbe3514c8bca25934U, 0x3e805cf73dc69897U, 0x3e1d9ba73e15c09bU,
  0xbcdab3783dc909c0U, 0x3ce1aa4c3d255ed8U, 0xbe1042fcbd062626U, 0xbc735e9cbdd73c75U,
  0x3d042438bd9f1b2eU, 0xbd1063783e54ee96U, 0x3e7d1813bddd42b3U, 0x3ccec3bebe8d125aU,
  0xbbd766e83ba00bb1U, 0xbd6e49ffbdbb374fU, 0xbced0f16bdff2d5cU, 0xbe39f56fbce5ecf9U,
  0x3e5dc7e6bc5bb342U, 0x3e78ebe2bd82910bU, 0x3ccdb758bc08ee2dU, 0xbbbac01e3bbed366U,
  0xbe6af9003e06886fU, 0xbdc9d1333ba17704U, 0xbd1e31a53d860397U, 0xbe48c8123d546d81U,
  0x3d24eebabe5e3e5cU, 0x3e216d36be883a0bU, 0xbd4f95f1bbdb9702U, 0xbc9a733ebd98146cU,
  0x3e4dc746bd0bc28eU, 0xbe1a55813e4a5561U, 0x3c65ae643b321959U, 0xbe0a3e37bd6e7b7cU,
  0x3e1200363e1897eeU, 0xbd5c0e273e58bd45U, 0x39a02ac03ce63f80U, 0x3e24ecf03dae8d86U,
  0xbdd0f6edbcea3abfU, 0x3d2713aebc573a83U, 0x3cf12c8dbd376ca3U, 0x3d91b460bd0be8b6U,
  0x3da71f263db890bdU, 0x3df5507e3e9180bbU, 0x3ab41e60be34aba1U, 0x3d8b50073e024e4eU,
  0xbe43b3e4bc9dcf3cU, 0x3a64c607bd7336b4U, 0xbd9a32e33e37a3d6U, 0xbe04cbfebd569881U,
  0xbd145741bc029979U, 0x3e1008563de3241aU, 0xbc56a4553e8012c1U, 0x3d334125be1c3756U,
  0xbd678d393d89ed1bU, 0x3e0396aa3d9754d1U, 0x3e8aa3b9bbb3307bU, 0xbd226bd03e10ded9U,
  0x3e3420aabe3923ccU, 0xbe2043d0be312978U, 0xbd02c1663e137633U, 0x3de7293cbe626348U,
  0xbde2bb323d11052aU, 0xbde29132beb877e1U, 0x3e34e4db3d43807bU, 0xbdb552b5be032048U,
  0x3d9105973d9b57b5U, 0xbe71a5c73d0a9bf4U, 0xbd8d1ea7be3531abU, 0x3dcaf706be96bddaU,
  0xbd11e88dbdebb4faU, 0x3e6b61f2bd6e0dbfU, 0x3d02a3253cb70bf9U, 0xbc2983f4bd2f20f5U,
  0xbe4e2f793d86917aU, 0x3db95cbbbe616e38U, 0xbe5a6c02be10a54cU, 0x3e18c034bd0cfc74U,
  0xbd788f7cbd6c4a3cU, 0xbdd5fc74bdc00740U, 0xbcd43e3e3b80e37bU, 0xbdbb45c3bd557ec0U,
  0xbd124d3b3ea38e86U, 0xbe375c7f3d9785abU, 0x3c4796403d8458abU, 0x3df884babd0e270bU,
  0xbe2149873e233d4cU, 0xbde91462bd4bc92dU, 0x3da48ada3ea8e5acU, 0xbce4e2993e4ecb57U,
  0x3d75bd1a3c16a80fU, 0x3d1eba673dfcd7f6U, 0x3d092f5ebe97a0cbU, 0xbd07dc193da9be53U,
  0x3cc441863e12e699U, 0x3e297d00bd8a76cfU, 0xbe07c7523cb9eca8U, 0xbdd0804e3e225c21U,
  0xbc72ba9d3d222a0aU, 0xbd5eb10c3db5e9beU, 0x3db7f3a7be90abccU, 0x3d59a5803e0e07bfU,
  0x3adc60f93d154706U, 0xbd23ee593af38a38U, 0xbe28e9983c880b03U, 0x3d5647b13d93665cU,
  0x3c2ec7fb3e9a4bb7U, 0xbd0281acbee20175U, 0x3c7524b0bd829fffU, 0xbe4444a9bdfcdca5U,
  0xbe977f163d80303bU, 0xbe4140cd3d3d3bf2U, 0xbda6ac16bd395e3dU, 0x3df3838cbe47b390U,
  0xbdd2e898bda79a5fU, 0xbdc7d16d3d54969bU, 0x3d5a16f63dcbd69bU, 0xbea685353dac65c1U,
  0x3db7006b3e65d013U, 0xbc3a3881be645eafU, 0x3d48f9ff3e518f3eU, 0x3d2dd923bd9783a1U,
  0xbe00ae483e43bb13U, 0xbe2fe833bd92576bU, 0x3e4b27a63b04da9aU, 0xbc0da41bbe15fb49U,
  0x3db03b10bd73706dU, 0xbd3fab113d94eccdU, 0xbe0b0e433e7f0140U, 0x3da19acbbe38b45aU,
  0x3e5eda67be12e431U, 0xbb8ea96cbd63bf08U, 0xbd1dc784bd6edbaeU, 0x3ab3b41f3e2a911fU,
  0xbb2233ed3dca1491U, 0x3e2bc658bd0818e2U, 0xbd812b9cbd86aadcU, 0x3dd710a23e34aca2U,
  0x3e5fb1e73dffa347U, 0xbbb7fcf13d5de443U, 0x3cf0a9d73d38891cU, 0xbbb6a84bbddeeffeU,
  0x3e549b0c3e11e1a1U, 0xbe6617c6bd286a50U, 0x3c1649373d2d708aU, 0x3dbe86b33d3ac48aU,
  0xba6d93463cea06ccU, 0x3e68b8493d9ed9b6U, 0x3d28417fbcffe267U, 0xbdb3e83ebc05876dU,
  0x3d9adca03afa6179U, 0xbe4672f8be2b68d0U, 0xbd00cc463e109331U, 0x3d2f271c3e1e8d3bU,
  0x3d67f2c93d9a5c5fU, 0x3da879783d444cadU, 0x3d346eb83e230dabU, 0x3e8fa9a53dc1a237U,
  0x3da8afcdbdd60260U, 0x3c665058be41b03dU, 0x3e0b235ebdbd2c96U, 0x3e35f1ec3bb75cadU,
  0x3e21a55d3ddaff6cU, 0x3de254a0bca0874fU, 0x3d9a37c5be343d10U, 0xbd9f4cc33e333b5cU,
  0x3cdc5cd2be110451U, 0x3e2cf515U, 0x0U, 0x0U,
  0x0U, 0x0U, 0x0U, 0x0U,
  0x0U, 0x0U, 0x0U, 0x0U,
  0x0U, 0x0U, 0x0U, 0x0U,
  0x0U, 0x0U, 0x0U, 0x0U,
  0x0U, 0x0U, 0x0U, 0x0U,
  0x0U, 0xbbd191c400000000U, 0xbc0cd3833ce3c0ecU, 0x3b775caf3d41c1acU,
  0x3d2cacb23cc620c2U, 0xbc63a9943d527f5fU, 0xb99412cd3c00a96cU, 0xbc3e6a183cc1a922U,
  0xbc5e9406bc915958U, 0x3f7e60943cbb07b6U, 0x3f7e0ba53f836716U, 0x3f80a1703f868f89U,
  0x3f85afcd3f832679U, 0x3f7b81b73f869d59U, 0x3f8000003f80e15eU, 0x3f7dd8003f8305c7U,
  0x3f7c809f3f7aabe9U, 0xbc0ae8b63f82fd34U, 0x3b438fa63ceb5496U, 0xbbf557bb3d2d6510U,
  0x3d01af743cedc643U, 0xbc09d7b73ca72e4dU, 0xbc42a56f3c1b0418U, 0xbc37d6de3cd71f8dU,
  0xbc6a7373bc30149aU, 0xbbd1d4ab3ce43894U, 0xbc11e5743cd6e820U, 0x3b8496453d5f0f66U,
  0x3d2545ee3cc55bafU, 0xbc63f1353d55b24bU, 0xb9b9751b3c006a82U, 0xbc3e96f33cbc7e3eU,
  0xbc5ed766bc92d1c4U, 0x3e2633ca3cd06ce4U, 0x3e57a4213e280caaU, 0x3db02f4fbdf03edbU,
  0xbc81195f3e29a9cbU, 0x3dc4dde03e19020eU, 0x3e86544cbd75145fU, 0xbccf6c8bbde13c08U,
  0x3e3d6d0dbe14937fU, 0xbe3506d3be59b289U, 0x3cc459a0be354518U, 0x3e2b5e7a3cada410U,
  0x3d2c97f83e6780c4U, 0x3e8adaaa3cf4ac10U, 0x3a874100bcf9bbf8U, 0x3e6cbb48be0fb9b6U,
  0x3d0bdfa03e8791beU, 0xbe8014ad3d89a9d8U, 0x3d9f5795bdb613c5U, 0xbd7ddae0bdbbdafbU,
  0xbe288f86be186683U, 0xbc7f041d3e6d867eU, 0xbe8aca8cbe5a322bU, 0xbd50b0943e0de6dcU,
  0xbdd32bc63dfe95e7U, 0xbdd30db93b065b60U, 0x3e97b7a23e40011bU, 0x3e7cd6b03e788c15U,
  0x3b4cf7853d5ca73eU, 0x3e5341713eac847fU, 0x3e2de3b33e3cbeabU, 0xbda22b033ead313eU,
  0x3e80616fbdc1f3ceU, 0xbdbcc7d23eac3148U, 0xbe1987dabc3e3190U, 0xbe1daed43e646a96U,
  0x3e08811fbdc1d3d1U, 0xbe290ff63dcad881U, 0x3e54fc34be00347bU, 0x3d4901f53af9bd36U,
  0xbe2aa898be3cbce8U, 0xbe3e7765bcbb7158U, 0x3dc6ae50be54590eU, 0x3d395080be24fe58U,
  0xbe7ad873bd807ef4U, 0xbceccbe0bcecf700U, 0xbe808fdbbdda2a1cU, 0x3c8ed8203d952214U,
  0x3d031658bccf1cc8U, 0x3dfdcfa4bd0d1570U, 0x3d8907fcbda1d7eeU, 0x3d83b34cbe1a3304U,
  0x3e4580aebd61fd20U, 0xbdab4c363e6fd3f4U, 0x3deb9808bdd3f6a2U, 0xbe83c70ebe10e714U,
  0x3da37074be7ab8cdU, 0x3e787907be87c890U, 0xbd4a39e63d928767U, 0xbd03c4453c8fa020U,
  0xbe521cc1bd666b3fU, 0x3e2c2227be11e25bU, 0x3e6c446cbe02e452U, 0xbe252c5bbe81836aU,
  0x3e287f7abe1bf5dfU, 0x3cd6d71b3d0f986aU, 0xbcc2fa97bdc8ea3dU, 0x3e323b04be4c053eU,
  0xbda985ddbcc1582eU, 0x3e4fa6d7be48daecU, 0xbe1bf7d63e894918U, 0xbdda18213d4360bbU,
  0xbd5152e63b76b65dU, 0xbe101b043e1512c0U, 0xbe3a9ebc3e6610a2U, 0x3e44bc763de01be7U,
  0xbdb7df1abd145d9bU, 0x3e70ae5e3e5d819dU, 0xbe3df662be345962U, 0x3cf7f9973e128675U,
  0x3d0341593e12b390U, 0xbe8b80babe1a5db7U, 0x3e4565d43d9e8c2fU, 0x3e4cf18fbe87e895U,
  0x3e3de495bddcc398U, 0x3e0724cbbe42a1b8U, 0x3e563d90be3769fbU, 0x3e3fac45bdd8ed00U,
  0xbe562a9a3d4d5b90U, 0xbe3fd794be31c179U, 0x3e38831a3e806cacU, 0x3dcf26523e675d41U,
  0xbe25bc5a3db270f0U, 0x3d66bc81bdc88ec3U, 0xbe2c19623e5c9966U, 0xbcfb9e60be4fb3efU,
  0xbe5369ec3ddc13fcU, 0xbda41810bcbb0ba2U, 0x3dcd1ec0bdfdf3c8U, 0xbd84cbc63dbf6720U,
  0x3d7606383e802fbbU, 0xbbf12700bceac775U, 0x3e1d04e2be86a3ccU, 0x3e11a7723cc9080aU,
  0x3e1931d8be5e28c2U, 0x3e6c0698bc003778U, 0xbe6eb799be4c7168U, 0xbe1968fabdc4ab12U,
  0x3d5092883d4d8578U, 0x3e04b91ebdcafaf4U, 0x3e647fb2bdcfa9aeU, 0x3e25f8663da5dcf4U,
  0xbe7b16ce3b7e1f00U, 0x3adc7c003dd59850U, 0xbdd905aebe0d68a9U, 0xbc2cf12e3e7046cfU,
  0x3e0d53f7be0e9ebeU, 0xbde1a160be63520aU, 0xbe09ceee3e22b18eU, 0x3e041a4a3d8954caU,
  0x3e3994f2bdbc3109U, 0x3e1cacc8bdabbabcU, 0xbe0a07fa3cd57e72U, 0xbe8b01a13e2e9780U,
  0xbda578133e5426cdU, 0xbe752ac43e6a2b32U, 0x3e2095d6be3cad99U, 0xbdb9e31cbe317477U,
  0x3d37a0f83e1a15bbU, 0xbe6a7310bd7fa957U, 0x3e0da631bdbb68b1U, 0x3d48ef59be0eb3fdU,
  0xbe027f773c19f15eU, 0x3e2acf013dfd5c48U, 0xbe3694093dfac473U, 0xbcb88141be0915e0U,
  0xbe4bb84dbe66ba00U, 0xbe1d1a243e6778ebU, 0xbe74ab433d506460U, 0x3e48bf643c00f400U,
  0x3e870e94bb985800U, 0xbe3e2ad0bb646680U, 0x3e472eba3e79dffcU, 0xbe8833693e36fbceU,
  0xbe7e5401bd40cb7cU, 0xbe05fc643e3c6132U, 0x3c9248073e07403bU, 0xbe799318be5cb3c4U,
  0x3e1916e13ddfde3dU, 0xbd0e2b47bd6da0abU, 0x3e7551fe3e1e59c9U, 0xbdc042d8bd6f616cU,
  0x3e280fd03e72a31dU, 0xbbf4331f3e3746ecU, 0xbe76b111be8b5f7eU, 0xbde6368d3e1dababU,
  0xbe737d913e187578U, 0xbe06cb03be0225afU, 0xbdcccbf8be121b06U, 0x3e773f763dc9a545U,
  0x3d9ac7143e4a8f4dU, 0x3cfbec40be17bb26U, 0x3e565e50be66ef89U, 0xbe585ab5bc4eaaf2U,
  0x3e2c2349bdcaba93U, 0xbe1a18cbbe77d010U, 0x3e216dddbe9be432U, 0xbcebbdecbe0ea9c0U,
  0x3e1d3c0cbe8504b7U, 0x3d6556083dc91235U, 0xbe7e13d6bd2c2ea8U, 0xbd68060c3e274cd4U,
  0x3e24b1c43dfb02ecU, 0x3e191bc03d3f82e8U, 0xbe664426be8238b9U, 0x3e88f656bdfdf178U,
  0xbe63faec3e139576U, 0x3de3c5d43bd5ca00U, 0xbe797ed6bcd91e10U, 0xbdf77a7ebe131d8bU,
  0x3e2f65debe883e7fU, 0x3e8c2e103b681280U, 0xbddd493c3e8122dcU, 0xbd121aac3e849c56U,
  0x3c124fc0be73d681U, 0x3d8ab2533da60250U, 0xbd0f6b55bd9bf5f8U, 0x3d4931e53d917ab2U,
  0xbccf2e2b3dbfd4c8U, 0x3c8daf063e154501U, 0xbe2e37b2bc5feb57U, 0x3e5e80a7be80d9eaU,
  0xbe0fb4a7bd2d9108U, 0x3e2423f73dab87c6U, 0x3e6f4629bbc63573U, 0x3c86ce1bbe4b96f7U,
  0xbe81aafebe7b8340U, 0xbe3a5254bde5f96eU, 0xbcf72d44be742d3fU, 0xbdddbe263e8a46efU,
  0x3e793e00be8c2e6aU, 0xbda49eb4bd58a085U, 0x3c25a4613e2de0d6U, 0x3e81563c3c35c8d7U,
  0xbdb5e7c03b8cd036U, 0x3e2ac4c5bea4fe09U, 0xbe348448be44fddcU, 0x3e3633713e0d4955U,
  0xbdd108863e2108dfU, 0x3e3f171c3dddc355U, 0xbd6a523c3d801aecU, 0x3d361842be58d8ddU,
  0xbe18864cbd9fe83cU, 0xbe557cc43e41e676U, 0xbd8a43b6bd57ef85U, 0x3e3898bc3d1ba22eU,
  0xbe84b186be31dd97U, 0x3e86c5203db4c0ddU, 0x3d2b84073dbd9f57U, 0x3dc3c9d5be41c493U,
  0xbe0497f4be1cfc08U, 0xbd01931b3e411e0cU, 0x3e36dade3e63490cU, 0x3cee21f03e125789U,
  0xbdf6bb3cbdf15c6aU, 0x3e475e483e79483bU, 0xbe6a99103e21e920U, 0x3d0f00d0bdf59040U,
  0x3b931f803e616e97U, 0x3d95d9f03e87b7a1U, 0xbe3f4181bd19e40cU, 0x3cebe7c03d5afe71U,
  0xbd16bf113e816fc2U, 0x3e1fd4a03e1beb77U, 0xbe6458d23d612338U, 0x3d5468e0be4ee708U,
  0x3e3872003e20377cU, 0x3d4b2b303e1934b8U, 0xbe3fc1a7be4105c0U, 0x3e61ee64be156b98U,
  0x3cd79a903dd2cf48U, 0xbe0a38d93e39b872U, 0x3e222c7d3e5ae31cU, 0x3d30f0dc3e1aca53U,
  0xbd1f0ce03e20fc90U, 0x3e150485be6bb81eU, 0x3cfe823b3e4bf6b1U, 0x3e72dd3f3b9d879aU,
  0xbdadea803e406ee4U, 0xbc746f20be45764dU, 0x3df3165b3e0c1f77U, 0xbe5cac68be57ba40U,
  0x3d94ec75be187df3U, 0xbe10b484be38b838U, 0xbe1b2569be856af6U, 0x3d893dcdbe82dc9eU,
  0xbe5d8ce13d32e574U, 0x3e21263e3d88e7e7U, 0x3e4e09fc3e714810U, 0x3d9ea8543c1d5b1fU,
  0xbd8c1e193c3ddfd2U, 0xbdf89da33e9f5c79U, 0x3e2c974abe3c0daaU, 0x3d0294fe3c39b935U,
  0xbe1ee95f3dc3fec3U, 0x3d0f54f83e54ef55U, 0xbe5f21263e7129e8U, 0xbe14a960bde9dcc8U,
  0x3e1ecd303de89fd4U, 0x3e86e968be3dbb2aU, 0x3e1c410a3d7ab540U, 0xbdaa0a1ebe647666U,
  0xbde96a4ebe60bf6fU, 0xbc51d8e03e212bb8U, 0xbcd3f5afbd43b62bU, 0xbe09933ebdbacf81U,
  0x3b7e9c3fbe5cdc16U, 0x3e22382c3e5f40b1U, 0xbe38d69fbe06c8e4U, 0x3e4245c0be52ff2dU,
  0xbe4065ccbe56faf2U, 0xbcc9c9783e8fa45fU, 0x3e1845c63e14eaeeU, 0xbe2efd7bbdc3c66aU,
  0x3e826a19bcd8d4c6U, 0xbe30cbcb3dd00148U, 0xbe50061b3e62f2d1U, 0xbdc90c5b3de41ea0U,
  0x3e8555b13cd01129U, 0x3cc60ce03e209c07U, 0xbe12fb7dbde64fcbU, 0xbd84c381be299befU,
  0x3e30b60abe33c384U, 0xbe0cf2e73e33010dU, 0xbd4002893d10c00dU, 0x3cc4f5edbe7b96e7U,
  0xbe6bf11ebd78c2ddU, 0x3dccc7483db3b245U, 0x3d8fed18bdcce1acU, 0xbda170d2bdabe0e2U,
  0x3d636cd83db35854U, 0xbdfb5a00bded16daU, 0x3e41079abe802b5bU, 0xbd508fa8be35b57fU,
  0x3e2a31b4bdbf3e6cU, 0xbe547e1cbda1ac86U, 0x3d003b78bdc999beU, 0xbe831d9a3e0f1da8U,
  0xbe7b43c1be824f56U, 0x3e32d8e6bd9f3ecaU, 0x3e042d943ddec978U, 0xbe42cc9ebd267b1cU,
  0xbe2aab7dbdde9e78U, 0xbe64efb4be11f3c0U, 0x3e573633bc25b56dU, 0xbdf9ec703d4d6f1dU,
  0xbc1bced53e8ff0a3U, 0xbe88bd98bdbe5fc1U, 0xbe6d0f5f3e348663U, 0x3dd351423d53582fU,
  0xbe118f12be263161U, 0x3ca88a5f3d8daa4dU, 0xbe4c071f3d2771aeU, 0x3d48e1003e32a857U,
  0xbe7e7b773e3c2c37U, 0x3d0650db3e96f6d2U, 0xbe395aa1bca49c20U, 0xbe4925573ce3681eU,
  0xbe3bafe1bdb3fa4dU, 0xbe16ab373e318185U, 0xbe25bda83e4417b7U, 0xbe80fe243e8987dcU,
  0x3e2dd7c13e88dab0U, 0xbd2131bfbe499e4aU, 0x3b4521023e413c31U, 0xbddda44e3e5cfacdU,
  0xbd0bb2983d223448U, 0xbd1d63b43e590333U, 0xbe0350e6be370eccU, 0xbe2851bfbde7ae88U,
  0x3cbe7579bc10a90fU, 0xbdbcbf593e38ac7cU, 0xbd39743e3d5bf561U, 0x3e9b000dbd3e485aU,
  0xbe37566fbe929499U, 0xbd985ce6be3b6cbcU, 0xbd2dc149bbb78bedU, 0x3d869e82bd891358U,
  0x3d88c1e03d863aa6U, 0xbd128767be89cedaU, 0xbe7d0059bd9940b0U, 0xbe085c5d3a0f2181U,
  0xbe82939a3e51729eU, 0xbdf0f9603a9efcabU, 0xbe55c22f3e67f4c0U, 0xbde3b55c3e4e19aeU,
  0x3d211fa0bdf05380U, 0x3e256f78bdf71d14U, 0x3e09050cbe8218bcU, 0x3d2f2d88bdc0175cU,
  0xbdc527e3be7dd138U, 0xbe36eb14bd16434aU, 0xbadbb0003d236a38U, 0xbcd5c4e03dad0d3cU,
  0xbe029d07be87f375U, 0x3e58c0143dc99564U, 0x3e3a17e23e05b8d0U, 0xbe5e7c7ebdfccfc2U,
  0xbe02d4c6be87e4ddU, 0xbe762929be8195beU, 0xbe3e18be3e7c57fdU, 0x3d9e0629bdf079ffU,
  0x3e1d4d8cbe2aa1caU, 0xbe54fa9b3e44d715U, 0x3e6db9f73dc9f83cU, 0x3e3538a6bc9566abU,
  0x3c52a9bc3e7976aeU, 0x3df80ae0be0a99e0U, 0x3dcc15b0bddd1a71U, 0x3e20489ebd59a484U,
  0xbcb86b9f3e01466eU, 0xbd3282cc3e399333U, 0x3dbb00d7bd9ae658U, 0x3da8d767be57759fU,
  0xbdb6b1243e6a129aU, 0xbd66744cbe2e05caU, 0xbe082eb03e11da3fU, 0x3e7a22f4be45ac01U,
  0xbd0b40a4bda7648bU, 0x3e679fa53d0b9460U, 0xbe3715a2bd93ce1aU, 0x3e912a87be1539a1U,
  0x3dd337303ea18d5fU, 0xbe5892b43e9f2f0dU, 0x3dea5ff8be374d8dU, 0x3e80ad0abe39de5fU,
  0x3d116c383e5b9ec0U, 0xbddcc8ccbe8186fbU, 0xbce85a003e500234U, 0xbe321543bd1b5a10U,
  0x3e0c6260be429048U, 0xbe3b89b7bd1b2430U, 0x3e3578c43e1cb74fU, 0xbe2f810c3e854b22U,
  0xbe06fd2f3dea2aefU, 0x3d6d4f11bd3a0a1cU, 0x3d4ff643be1b132fU, 0x3de1f48a3d703af9U,
  0xbdaba5f03e37eab4U, 0x3e5269373d9ca748U, 0x3d7bd97e3e717318U, 0xbe6da6e0be262396U,
  0x3e0ba1b93d02ce69U, 0x3cd941443e00f02aU, 0x3c9fbda03df2ab37U, 0x3e4859f93eb466faU,
  0xbe00c99c3dc8ef42U, 0xbe3a71553e0b1fb9U, 0x3ce0eea0bdbf458aU, 0xbe69e316bcb42efaU,
  0x3e2b12023e04e105U, 0xbd073bd73e941341U, 0x3e53848b3d51eb02U, 0x3c62e5cabcb84f83U,
  0xbe6cb3debdd6af25U, 0xbdbfbd4abe1e015aU, 0xbe4b41fcbcbec2f0U, 0x3e7ae2e0bd7d3b14U,
  0xbe7927dabdd4e5a6U, 0x3df69528bd58afe8U, 0x3dc51f98be2cc43dU, 0xbd111e74be699b73U,
  0xbe68e3acbc66a2a0U, 0x3e21ab083dd361a0U, 0xbe195e8d3e4d1486U, 0x3dcbf3003d7e1818U,
  0xbd687afc3e018a0eU, 0xbddd5d5e3e830062U, 0x3e4f595abe3ccea2U, 0x3e4e38463e7bbb7cU,
  0xbe2f94c0be411978U, 0x3e2e72bdbe86d6fcU, 0xbdd98093be1f194cU, 0x3d1831b13dbf9128U,
  0x3dcef7523e6cb49fU, 0xbe69f9fb3e242641U, 0x3d9dac343d10303dU, 0x3bcebfb53d192b1dU,
  0x3be360a43df09191U, 0xbe31f262bdb1df85U, 0x3e0970e63d12f9f2U, 0xbe5af47d3da45fb4U,
  0x3cacd6103e8d98c4U, 0x3e7846c0bd0701d6U, 0x3d890f433e0be036U, 0x3e03df27be788aaaU,
  0xbd6f0ac9be2903d6U, 0x3dd1934f3e0d93dcU, 0xbdb1968b3e0e00efU, 0x3e858e32bbc5f397U,
  0x3d6df7b0bd8364c6U, 0x3e80f93ebd8ba116U, 0x3e2a54d83e2c530eU, 0xbd0307dcbdff9ec5U,
  0x3d94aaf23d54a8a2U, 0x3e5765943e8be216U, 0xbdc03f4e3d973b88U, 0x3e5249843c7141d5U,
  0x3e27f9a1bc651f58U, 0xbd93956fbda0de68U, 0xbe8476a7bdfb3077U, 0x3e0721c83e2dca84U,
  0xbe7f8b07bdd0d7d5U, 0xbca9ea80be460e4dU, 0x3cd13f113e82959cU, 0x3e5aa68c3d980f72U,
  0x3e048586bcb5ecf0U, 0xbdc57c243e892d3fU, 0xbb9729c03d9adf50U, 0x3e135b70be46daccU,
  0xbe2b197ebe075f02U, 0x3e8255a2bdb4e350U, 0x3c0d83c0be61a8dfU, 0xbe376b3fbe74f767U,
  0x3d756368be7e33b6U, 0xbdda1296bcaefe26U, 0x3db297e0be5832f9U, 0xbd652154bd2cf7e4U,
  0xbd2e8efd3da6e620U, 0x3e6562803e42139eU, 0xbe3d656a3deb2820U, 0x3deb89ecbe5736aeU,
  0x3e30a1c43e43278eU, 0x3e0df560bd167d94U, 0xbe03a472be8a8420U, 0xbe5b7bb1be7a0b3eU,
  0x3dc140e03e097d14U, 0x3b9c9400bd64aa10U, 0x3dc79973be5fa7e6U, 0xbb053f813e3e58cdU,
  0x3dd36ed23e7e2292U, 0xbe1b335cbe30b1abU, 0x3d42da243e08fb00U, 0xbd742b6c3e3c99b2U,
  0x3e46b93d3e40196bU, 0x3dcaf0583de72b49U, 0xbe6f40e3be705390U, 0x3cae95e33e2395baU,
  0x3de1bc53bcc07bc2U, 0xbaa4fd083b2380a6U, 0x3e2107dd3b847d29U, 0xbda402243c26b964U,
  0xbc7e33c0bdbf6c8bU, 0xbd90a090be854668U, 0xbdfa77d9bd14351fU, 0x3d83db7e3dfbfb04U,
  0xbde758cdbd16ee2cU, 0xbcede6bc3e0f0209U, 0x3e2a0f09be1a370eU, 0xbcad32b43d5b7cadU,
  0xbdc4f2613d6f219fU, 0xbe14e4ecbb9ca62dU, 0x3e2f930dbda683b2U, 0xbd4e7012bd8b49b8U,
  0x3e426a3dbe1b4200U, 0xbdd49544bcb80dc1U, 0x3df377383dd8b026U, 0x3ac8d012bd694c06U,
  0x3d786249bd2d5ac5U, 0x3deefe403ddb4da5U, 0x3e0b27763e3285baU, 0x3e0f365c3e6111ceU,
  0x3ac4ac883b869bc0U, 0x3e29bb01be609413U, 0xbbb45b6b3d992459U, 0xbda2c99cbca333afU,
  0x3e118e85bcd82b2fU, 0xbde8c561be77243aU, 0x3d437f603d969c88U, 0xbd8233d83e685c20U,
  0xbe3232f5be377c87U, 0x3e6dc7a93eac2a41U, 0xbe1d81dd3e5ed70cU, 0xbd5b454c3df559c8U,
  0x3db00dacbca5eee4U, 0xbe88f5d6bdcab5e2U, 0x3e0e45a6bd310598U, 0xbc8c828cbdd80770U,
  0x3c84345cbdf99fb3U, 0xbde40b4d39a34500U, 0xbd88c969bdd7a63cU, 0x3d93d44ebd2b9cc6U,
  0xbe7c143a3c5116ceU, 0x3dbd9d0abe1f6617U, 0x3c852832bd38ab01U, 0xbdca37c2bd1c27bcU,
  0x3c609d16be33699bU, 0x3e3edfb1bd33448eU, 0x3e61df883dd1b971U, 0x3e4ee2cf3d7a1c24U,
  0xbe3deafebdab5524U, 0x3ca59719bd73082bU, 0xbd7516833d9f0de3U, 0xbd7b1d7fbe5201bbU,
  0xbca8818b3e065b40U, 0xbc7372f73d5bf3d8U, 0xbe16693f3ace46c8U, 0xbeee482a3e1e910aU,
  0x3de2eebfbd411ec9U, 0x3e73d4443c2dc45fU, 0x3e0d30c7be70f71fU, 0x3d40254cbe01ec56U,
  0xbe0da8e5b99c9800U, 0x3e6d6dfabe6c50d9U, 0x3e2865183da6ea16U, 0xbe29b872bd936be1U,
  0xbe2d8782bde6a0daU, 0x3e5b8267be67f7a0U, 0x3d0445dcbd493c92U, 0x3e5bfabe3e428175U,
  0x3d83893e3d86c914U, 0x3bd50f32bd4d6e26U, 0x3d2321b8be928686U, 0xbe1eaa1d3c2b0766U,
  0xbd225e1d3d7df21eU, 0x3dc72421be651012U, 0x3dbc3ec73e4f9139U, 0xbd9dd5a0be1a9243U,
  0xbd520d5c3d6468baU, 0xbde374cf3ce6b8ddU, 0x3dec3a6dbe1028dfU, 0x3e027ff03e6d4cedU,
  0xbe44ffdc3dfdfeddU, 0x3e5105f13d1fba02U, 0x3c42dc59bd111d0cU, 0x3ca7565dbe285ab0U,
  0xbd947889bd5ebf03U, 0x3e413ffd3cb6d4ddU, 0xbd3371df3d16e8f2U, 0xbced9dff3e9c55ddU,
